{"<s>": 0, "<pad>": 1, "</s>": 2, "<unk>": 3, "<mask>": 4, "<num>": 5, "a": 6, "i": 7, ".": 8, "!": 9, "?": 10, ",": 11, ";": 12, "<pd>": 13, "th": 14, "<nm>": 15, "f": 16, "nd": 17, "n": 18, "t": 19, "": 20, "ws": 21, "h": 22, "s": 23, "hs": 24, "fr": 25, "wth": 26, "tht": 27, "hr": 28, "sh": 29, "y": 30, "by": 31, "frm": 32, "hd": 33, "my": 34, "bt": 35, "m": 36, "wr": 37, "b": 38, "ths": 39, "hm": 40, "r": 41, "nt": 42, "thy": 43, "hv": 44, "p": 45, "ll": 46, "whch": 47, "frst": 48, "wht": 49, "d": 50, "whn": 51, "wh": 52, "sd": 53, "thr": 54, "bn": 55, "w": 56, "wld": 57, "ls": 58, "ftr": 59, "thn": 60, "ts": 61, "dd": 62, "tm": 63, "bck": 64, "lk": 65, "tw": 66, "cld": 67, "vr": 68, "nw": 69, "jst": 70, "thm": 71, "mr": 72, "cn": 73, "nly": 74, "bfr": 75, "whr": 76, "dwn": 77, "brn": 78, "knw": 79, "yr": 80, "thrgh": 81, "sm": 82, "schl": 83, "md": 84, "rnd": 85, "wll": 86, "wrld": 87, "gt": 88, "yrs": 89, "drng": 90, "hw": 91, "ys": 92, "nvrsty": 93, "wy": 94, "ff": 95, "btwn": 96, "mrcn": 97, "knwn": 98, "mst": 99, "vn": 100, "rght": 101, "whl": 102, "cty": 103, "ltr": 104, "ndr": 105, "ppl": 106, "ntl": 107, "prt": 108, "ntnl": 109, "gn": 110, "gnst": 111, "stll": 112, "bng": 113, "gng": 114, "stt": 115, "scnd": 116, "fmly": 117, "lng": 118, "nm": 119, "g": 120, "lf": 121, "sth": 122, "ntd": 123, "mn": 124, "bth": 125, "hnd": 126, "bcs": 127, "tk": 128, "flm": 129, "wnt": 130, "ssn": 131, "snc": 132, "bcm": 133, "ny": 134, "wrk": 135, "mny": 136, "mch": 137, "nvr": 138, "thnk": 139, "sch": 140, "lkd": 141, "hgh": 142, "gd": 143, "nrth": 144, "fc": 145, "dy": 146, "lft": 147, "dstrct": 148, "stts": 149, "smthng": 150, "plc": 151, "cnty": 152, "lttl": 153, "rly": 154, "plyd": 155, "mk": 156, "thght": 157, "fnd": 158, "lbm": 159, "lst": 160, "skd": 161, "lg": 162, "nthr": 163, "ch": 164, "msc": 165, "clld": 166, "vry": 167, "hld": 168, "grp": 169, "cmpny": 170, "bst": 171, "cm": 172, "srs": 173, "ld": 174, "bgn": 175, "why": 176, "ncldng": 177, "rm": 178, "lt": 179, "clb": 180, "twn": 181, "rlsd": 182, "fthr": 183, "wst": 184, "dr": 185, "smll": 186, "wn": 187, "cllg": 188, "svrl": 189, "lctd": 190, "mmbr": 191, "jhn": 192, "fw": 193, "ftbll": 194, "fllwng": 195, "vllg": 196, "sttn": 197, "sy": 198, "trnd": 199, "bdy": 200, "nmbr": 201, "wntd": 202, "strtd": 203, "nght": 204, "lv": 205, "flt": 206, "mrch": 207, "st": 208, "ntrntnl": 209, "shld": 210, "vc": 211, "nxt": 212, "v": 213, "jnry": 214, "mvd": 215, "hnds": 216, "frmr": 217, "thgh": 218, "sng": 219, "gm": 220, "rvr": 221, "jn": 222, "sptmbr": 223, "srvd": 224, "tll": 225, "bsd": 226, "rlly": 227, "ln": 228, "gnrl": 229, "pn": 230, "nc": 231, "jly": 232, "hwvr": 233, "ctbr": 234, "yrk": 235, "gst": 236, "fv": 237, "prl": 238, "prty": 239, "blck": 240, "bhnd": 241, "nmd": 242, "ppltn": 243, "sr": 244, "chrch": 245, "hstry": 246, "bnd": 247, "c": 248, "wmn": 249, "wtht": 250, "tld": 251, "crr": 252, "tp": 253, "nvmbr": 254, "spcs": 255, "brtsh": 256, "wtr": 257, "sw": 258, "dcmbr": 259, "bldng": 260, "sngl": 261, "mthr": 262, "grt": 263, "blt": 264, "ds": 265, "tgthr": 266, "shw": 267, "ngh": 268, "rd": 269, "sn": 270, "pt": 271, "hmslf": 272, "frnt": 273, "gvrnmnt": 274, "cntry": 275, "hlp": 276, "kng": 277, "crss": 278, "wthn": 279, "nthng": 280, "fbrry": 281, "nythng": 282, "nglsh": 283, "dth": 284, "mght": 285, "tms": 286, "bk": 287, "pblc": 288, "nr": 289, "thngs": 290, "lrg": 291, "fl": 292, "thng": 293, "chldrn": 294, "pnd": 295, "prsdnt": 296, "lwys": 297, "gms": 298, "lcl": 299, "fnl": 300, "lght": 301, "yng": 302, "cp": 303, "ply": 304, "srvc": 305, "thrd": 306, "nsd": 307, "strt": 308, "rcvd": 309, "prk": 310, "lkng": 311, "wrkd": 312, "cntr": 313, "gv": 314, "plyr": 315, "mjr": 316, "hrd": 317, "hvng": 318, "systm": 319, "bttr": 320, "dffrnt": 321, "cntrl": 322, "lmst": 323, "pblshd": 324, "mnd": 325, "frnch": 326, "myb": 327, "hlf": 328, "pnt": 329, "dvsn": 330, "bsnss": 331, "rdr": 332, "ffc": 333, "mkng": 334, "mmnt": 335, "cls": 336, "mmbrs": 337, "fll": 338, "cr": 339, "lw": 340, "sx": 341, "kp": 342, "hrt": 343, "bg": 344, "lndn": 345, "rt": 346, "prfssnl": 347, "lrdy": 348, "rn": 349, "rms": 350, "drk": 351, "shrt": 352, "smn": 353, "dys": 354, "mth": 355, "pwr": 356, "slnd": 357, "rmy": 358, "wrd": 359, "trck": 360, "drctr": 361, "mrrd": 362, "brthr": 363, "ncld": 364, "lthgh": 365, "vrythng": 366, "grl": 367, "twrd": 368, "grmn": 369, "cmmnty": 370, "clss": 371, "gvn": 372, "lnd": 373, "tryng": 374, "tlvsn": 375, "chmpnshp": 376, "cncl": 377, "stry": 378, "jnd": 379, "dn": 380, "rsrch": 381, "crs": 382, "fndd": 383, "stp": 384, "wrds": 385, "rchd": 386, "ft": 387, "dctn": 388, "plld": 389, "l": 390, "ttl": 391, "stblshd": 392, "ftn": 393, "bld": 394, "std": 395, "wrkng": 396, "lvng": 397, "plyng": 398, "wstrn": 399, "rtrnd": 400, "rcrd": 401, "wllm": 402, "smmr": 403, "snd": 404, "ncldd": 405, "rgn": 406, "nglnd": 407, "cll": 408, "wrttn": 409, "thrs": 410, "smd": 411, "wf": 412, "lctn": 413, "jms": 414, "bd": 415, "trd": 416, "dprtmnt": 417, "dng": 418, "mng": 419, "pst": 420, "hll": 421, "rck": 422, "sml": 423, "grnd": 424, "rgnl": 425, "ssctn": 426, "wrks": 427, "dvlpmnt": 428, "fnlly": 429, "cntnd": 430, "yt": 431, "myslf": 432, "flr": 433, "tkng": 434, "bl": 435, "tbl": 436, "rl": 437, "ryl": 438, "prdcd": 439, "hmn": 440, "pprd": 441, "fld": 442, "prbbly": 443, "cmng": 444, "crt": 445, "lvl": 446, "clsd": 447, "dnt": 448, "tkn": 449, "mltry": 450, "grg": 451, "sys": 452, "dp": 453, "pltcl": 454, "knd": 455, "clfrn": 456, "dghtr": 457, "nn": 458, "wlkd": 459, "tlk": 460, "ndd": 461, "ky": 462, "crtd": 463, "nrthrn": 464, "fllwd": 465, "lps": 466, "tsd": 467, "hrslf": 468, "prvnc": 469, "mv": 470, "strl": 471, "frnc": 472, "dbt": 473, "scty": 474, "vrs": 475, "frc": 476, "styl": 477, "rfr": 478, "ccrdng": 479, "grn": 480, "nstd": 481, "sthrn": 482, "tdy": 483, "nddd": 484, "prsnt": 485, "rlwy": 486, "rst": 487, "pstn": 488, "rcrds": 489, "mddl": 490, "frwrd": 491, "frnd": 492, "ddnt": 493, "gttng": 494, "dvd": 495, "trn": 496, "fnshd": 497, "dscrbd": 498, "lngg": 499, "ht": 500, "tn": 501, "brd": 502, "strln": 503, "prd": 504, "cnss": 505, "rpn": 506, "scnc": 507, "brth": 508, "cs": 509, "mprtnt": 510, "rnnng": 511, "stdnts": 512, "mt": 513, "mlln": 514, "rcrdd": 515, "mnts": 516, "frmd": 517, "mrnng": 518, "cnd": 519, "crrntly": 520, "ct": 521, "prgrm": 522, "bv": 523, "vnt": 524, "ppntd": 525, "frnds": 526, "ndn": 527, "brght": 528, "prdctn": 529, "mrc": 530, "fngrs": 531, "qckly": 532, "svn": 533, "prfssr": 534, "blv": 535, "rgnlly": 536, "smld": 537, "cch": 538, "tv": 539, "nfrmtn": 540, "dsgn": 541, "mnstr": 542, "vrsn": 543, "hppnd": 544, "fn": 545, "rc": 546, "sgnd": 547, "spcl": 548, "gld": 549, "thms": 550, "prsn": 551, "kpt": 552, "chf": 553, "scl": 554, "sstr": 555, "vd": 556, "drctd": 557, "chst": 558, "brwn": 559, "chld": 560, "chng": 561, "srvcs": 562, "lss": 563, "spc": 564, "phn": 565, "spprt": 566, "stppd": 567, "fct": 568, "frthr": 569, "bttl": 570, "dcdd": 571, "shk": 572, "strn": 573, "cnsdrd": 574, "yh": 575, "prjct": 576, "nsttt": 577, "mnths": 578, "j": 579, "pl": 580, "sty": 581, "bks": 582, "msm": 583, "rbrt": 584, "cdmy": 585, "rts": 586, "ght": 587, "flng": 588, "smtms": 589, "wd": 590, "crrnt": 591, "vnts": 592, "skn": 593, "cndn": 594, "nyn": 595, "try": 596, "vryn": 597, "stg": 598, "nws": 599, "snt": 600, "str": 601, "cmmn": 602, "chrls": 603, "wrt": 604, "ctlly": 605, "trnmnt": 606, "trm": 607, "sk": 608, "grmny": 609, "klld": 610, "nnncd": 611, "srry": 612, "prnts": 613, "spnt": 614, "rls": 615, "mtch": 616, "gy": 617, "trnng": 618, "rsd": 619, "chngd": 620, "hrs": 621, "stndng": 622, "tr": 623, "mchl": 624, "wk": 625, "sngs": 626, "pr": 627, "rtrn": 628, "prvt": 629, "fd": 630, "ddd": 631, "prsnl": 632, "hsptl": 633, "dgr": 634, "shldr": 635, "jpns": 636, "rthr": 637, "typ": 638, "k": 639, "sht": 640, "mdrn": 641, "dvlpd": 642, "ftrs": 643, "ffcl": 644, "mttr": 645, "fstvl": 646, "pplr": 647, "pnts": 648, "mvng": 649, "plcd": 650, "hnry": 651, "stdd": 652, "jck": 653, "tln": 654, "pltcn": 655, "lvd": 656, "cmpttn": 657, "slly": 658, "snr": 659, "mncplty": 660, "rdy": 661, "shp": 662, "vntlly": 663, "lrd": 664, "strng": 665, "lngr": 666, "hstrc": 667, "slwly": 668, "ptr": 669, "chptr": 670, "thnkng": 671, "cnstrctn": 672, "dsgnd": 673, "rmnd": 674, "twrds": 675, "chn": 676, "mdl": 677, "bnk": 678, "kll": 679, "stn": 680, "plcs": 681, "jpn": 682, "chmpnshps": 683, "grls": 684, "nck": 685, "rmmbr": 686, "hlth": 687, "wrng": 688, "ffcr": 689, "wshngtn": 690, "cvl": 691, "mstr": 692, "chr": 693, "rtst": 694, "tlkng": 695, "pssd": 696, "ttndd": 697, "stds": 698, "lwr": 699, "cght": 700, "ttntn": 701, "jb": 702, "hldng": 703, "rssn": 704, "fght": 705, "sld": 706, "kngdm": 707, "cmmtt": 708, "rs": 709, "mry": 710, "rng": 711, "plyrs": 712, "fml": 713, "vrg": 714, "ldng": 715, "pssbl": 716, "mgzn": 717, "smlr": 718, "pls": 719, "stdy": 720, "lstd": 721, "sngr": 722, "mntn": 723, "wnd": 724, "cptn": 725, "brdg": 726, "ndrstnd": 727, "rp": 728, "vlly": 729, "wtchd": 730, "bgnnng": 731, "schls": 732, "sddnly": 733, "mns": 734, "twnty": 735, "gns": 736, "ntr": 737, "rsn": 738, "lrgst": 739, "mdcl": 740, "nclds": 741, "thrght": 742, "chrctr": 743, "cnfrnc": 744, "nvlvd": 745, "prs": 746, "dspt": 747, "sprts": 748, "glss": 749, "cvrd": 750, "cmpltd": 751, "frth": 752, "spnsh": 753, "wtng": 754, "cptl": 755, "cpl": 756, "spclly": 757, "hp": 758, "mnt": 759, "wndw": 760, "wrdd": 761, "pln": 762, "strd": 763, "qstn": 764, "qn": 765, "nrly": 766, "gtr": 767, "wrtr": 768, "ntrd": 769, "fmls": 770, "wt": 771, "lgs": 772, "mm": 773, "cst": 774, "qt": 775, "mrk": 776, "mss": 777, "wlk": 778, "ntwrk": 779, "rchrd": 780, "prtty": 781, "rpblc": 782, "dl": 783, "lngth": 784, "mvmnt": 785, "sns": 786, "sqr": 787, "nswr": 788, "prfrmd": 789, "ftbllr": 790, "rrl": 791, "km": 792, "dt": 793, "prss": 794, "wnnng": 795, "btfl": 796, "blw": 797, "slvr": 798, "nvl": 799, "hsbnd": 800, "bby": 801, "tchnlgy": 802, "ndpndnt": 803, "bs": 804, "stnd": 805, "txs": 806, "syng": 807, "chrstn": 808, "plys": 809, "hppy": 810, "mks": 811, "rth": 812, "rgnztn": 813, "frcs": 814, "frcn": 815, "ddtn": 816, "ldy": 817, "lks": 818, "bsktbll": 819, "ldr": 820, "sz": 821, "gz": 822, "rslt": 823, "thtr": 824, "sctn": 825, "ntv": 826, "slf": 827, "ntrl": 828, "flms": 829, "whs": 830, "rmn": 831, "lympcs": 832, "twnshp": 833, "lnks": 834, "dg": 835, "hvy": 836, "mngmnt": 837, "clr": 838, "ntbl": 839, "prfrmnc": 840, "fgr": 841, "vlbl": 842, "rlr": 843, "wtch": 844, "cmptd": 845, "gvrnr": 846, "nrgy": 847, "ftrd": 848, "rlnd": 849, "prcss": 850, "chns": 851, "dstnc": 852, "chnc": 853, "ctn": 854, "sttng": 855, "pprxmtly": 856, "slctd": 857, "rprsntd": 858, "dnc": 859, "tch": 860, "drppd": 861, "lghd": 862, "cvr": 863, "kss": 864, "crnr": 865, "prhps": 866, "br": 867, "ntrst": 868, "tks": 869, "ssmbly": 870, "tslf": 871, "rglr": 872, "wrtng": 873, "nvy": 874, "grw": 875, "xctly": 876, "wks": 877, "bldngs": 878, "mtng": 879, "hghwy": 880, "pnng": 881, "ctr": 882, "prvsly": 883, "gvng": 884, "whtvr": 885, "prts": 886, "mngd": 887, "crtn": 888, "trst": 889, "smth": 890, "strtng": 891, "ttck": 892, "clsr": 893, "cmpltly": 894, "prnc": 895, "mmdtly": 896, "brng": 897, "fst": 898, "thrt": 899, "prvs": 900, "rplcd": 901, "lvs": 902, "prmry": 903, "zlnd": 904, "drctn": 905, "rprt": 906, "lbrry": 907, "yth": 908, "wtchng": 909, "bys": 910, "grdtd": 911, "xtrnl": 912, "rlzd": 913, "plnt": 914, "chcg": 915, "xcpt": 916, "scrty": 917, "strght": 918, "ctv": 919, "prlmnt": 920, "whsprd": 921, "jnr": 922, "ppr": 923, "rcrft": 924, "slp": 925, "cllctn": 926, "glncd": 927, "bshp": 928, "scrtry": 929, "fdrl": 930, "brk": 931, "rns": 932, "stff": 933, "cms": 934, "bsbll": 935, "cmptr": 936, "cthlc": 937, "bll": 938, "stdnt": 939, "mls": 940, "mngr": 941, "hlpd": 942, "ssstnt": 943, "trcks": 944, "prdcr": 945, "ndstry": 946, "chnnl": 947, "cstl": 948, "flld": 949, "htl": 950, "rghts": 951, "frcd": 952, "xmpl": 953, "brthrs": 954, "mstly": 955, "grps": 956, "pshd": 957, "shws": 958, "llwd": 959, "bckgrnd": 960, "rch": 961, "psd": 962, "mtl": 963, "dtn": 964, "sft": 965, "mrkt": 966, "hcky": 967, "cmplt": 968, "whm": 969, "vcls": 970, "xctv": 971, "strs": 972, "rltd": 973, "ncnt": 974, "srvng": 975, "rtrd": 976, "vrgn": 977, "bcmng": 978, "gss": 979, "prblm": 980, "drv": 981, "fndtn": 982, "sccssfl": 983, "cntrct": 984, "tnght": 985, "prsh": 986, "mtchs": 987, "cntrs": 988, "1st": 989, "jsph": 990, "rpld": 991, "smply": 992, "ml": 993, "hstryth": 994, "systms": 995, "rsh": 996, "mscl": 997, "cmmnd": 998, "sccss": 999, "hghr": 1000, "ktchn": 1001, "grbbd": 1002, "plnd": 1003, "nms": 1004, "sf": 1005, "trth": 1006, "dctr": 1007, "ngnrng": 1008, "grk": 1009, "mxc": 1010, "mssn": 1011, "ntrdcd": 1012, "fllw": 1013, "prctc": 1014, "wlkng": 1015, "tly": 1016, "srfc": 1017, "ffrd": 1018, "fms": 1019, "strctr": 1020, "x": 1021, "grd": 1022, "shldrs": 1023, "slghtly": 1024, "prz": 1025, "wls": 1026, "prr": 1027, "lns": 1028, "vw": 1029, "trs": 1030, "cmmssn": 1031, "xprssn": 1032, "lnchd": 1033, "spk": 1034, "dtr": 1035, "chrt": 1036, "chmpn": 1037, "rslts": 1038, "tmpl": 1039, "bx": 1040, "nrby": 1041, "prvdd": 1042, "bynd": 1043, "rrvd": 1044, "hndrd": 1045, "wntr": 1046, "spd": 1047, "cntns": 1048, "dmn": 1049, "prprty": 1050, "sky": 1051, "cmmrcl": 1052, "ngls": 1053, "lmtd": 1054, "rtsts": 1055, "crk": 1056, "frgn": 1057, "sngls": 1058, "scrd": 1059, "slnds": 1060, "dmnstrtv": 1061, "ngn": 1062, "pckd": 1063, "gls": 1064, "mnth": 1065, "prtd": 1066, "thmslvs": 1067, "bch": 1068, "drm": 1069, "stndrd": 1070, "flrd": 1071, "hghst": 1072, "prtns": 1073, "ntlly": 1074, "cmpgn": 1075, "rgby": 1076, "pc": 1077, "dbl": 1078, "mrtn": 1079, "cltr": 1080, "crrd": 1081, "dwrd": 1082, "dftd": 1083, "hdd": 1084, "hstrcl": 1085, "gry": 1086, "prfct": 1087, "trdtnl": 1088, "pprnc": 1089, "mnng": 1090, "gl": 1091, "tst": 1092, "dmcrtc": 1093, "wrm": 1094, "ssns": 1095, "prtn": 1096, "mpr": 1097, "chrmn": 1098, "cmp": 1099, "rcrdng": 1100, "rltnshp": 1101, "mrs": 1102, "tth": 1103, "thts": 1104, "wsnt": 1105, "brkn": 1106, "prvd": 1107, "xprnc": 1108, "slnc": 1109, "whthr": 1110, "nts": 1111, "rcng": 1112, "ly": 1113, "ccss": 1114, "jrnl": 1115, "rss": 1116, "vrll": 1117, "bss": 1118, "sgn": 1119, "lftd": 1120, "nnl": 1121, "stdm": 1122, "sppsd": 1123, "svt": 1124, "gldn": 1125, "wlls": 1126, "nmrs": 1127, "pss": 1128, "crln": 1129, "pll": 1130, "txt": 1131, "rprtd": 1132, "xpctd": 1133, "pcfc": 1134, "ndvdl": 1135, "nywy": 1136, "sttld": 1137, "stmch": 1138, "srt": 1139, "dscvrd": 1140, "chc": 1141, "cmplx": 1142, "ctrss": 1143, "thnks": 1144, "dtch": 1145, "cff": 1146, "py": 1147, "hppn": 1148, "scrt": 1149, "brnch": 1150, "myr": 1151, "src": 1152, "dcsn": 1153, "twr": 1154, "gys": 1155, "scnds": 1156, "gnrlly": 1157, "fcs": 1158, "pnnsylvn": 1159, "tchr": 1160, "hss": 1161, "wng": 1162, "grwng": 1163, "flght": 1164, "blvd": 1165, "frmrly": 1166, "cnmc": 1167, "fghtng": 1168, "bnth": 1169, "frt": 1170, "cmpsd": 1171, "swt": 1172, "yllw": 1173, "ssctd": 1174, "knwng": 1175, "mrrg": 1176, "jstc": 1177, "drw": 1178, "sprng": 1179, "scttsh": 1180, "fndr": 1181, "wnnr": 1182, "mnr": 1183, "spn": 1184, "brdr": 1185, "ffth": 1186, "nrml": 1187, "sbsqntly": 1188, "cnssts": 1189, "cmmndr": 1190, "clths": 1191, "2nd": 1192, "mpty": 1193, "wndws": 1194, "cmpns": 1195, "sbjct": 1196, "gs": 1197, "mgc": 1198, "sttlmnt": 1199, "ctng": 1200, "lbl": 1201, "csd": 1202, "rgstr": 1203, "frnk": 1204, "fngr": 1205, "prmtd": 1206, "yrslf": 1207, "tllng": 1208, "ntcd": 1209, "thghts": 1210, "ns": 1211, "drctly": 1212, "sss": 1213, "lctns": 1214, "fnncl": 1215, "slnt": 1216, "twc": 1217, "jdg": 1218, "vctr": 1219, "pp": 1220, "rspns": 1221, "lxndr": 1222, "mmry": 1223, "spr": 1224, "dmnstrtn": 1225, "vmpr": 1226, "ddtnl": 1227, "pntd": 1228, "tght": 1229, "smpl": 1230, "nwsppr": 1231, "sprd": 1232, "lgl": 1233, "thry": 1234, "lrgr": 1235, "stps": 1236, "prtclr": 1237, "cd": 1238, "frd": 1239, "sctlnd": 1240, "lkly": 1241, "spt": 1242, "mntns": 1243, "cngrss": 1244, "snds": 1245, "prtclrly": 1246, "lbms": 1247, "pctr": 1248, "slw": 1249, "vrty": 1250, "knws": 1251, "tng": 1252, "cltrl": 1253, "physcl": 1254, "ss": 1255, "mnly": 1256, "rmns": 1257, "sms": 1258, "bstn": 1259, "yngr": 1260, "prssd": 1261, "dnl": 1262, "bttm": 1263, "thck": 1264, "ctvts": 1265, "jns": 1266, "cqrd": 1267, "wnts": 1268, "qck": 1269, "trrtry": 1270, "vctry": 1271, "brly": 1272, "sv": 1273, "rlld": 1274, "plns": 1275, "hy": 1276, "pprncs": 1277, "sghd": 1278, "lzbth": 1279, "19th": 1280, "trms": 1281, "drnk": 1282, "kds": 1283, "sgnfcnt": 1284, "pck": 1285, "mrn": 1286, "shwd": 1287, "rdng": 1288, "rfrrd": 1289, "lgn": 1290, "fnsh": 1291, "dk": 1292, "rcgnzd": 1293, "qstns": 1294, "sl": 1295, "vnng": 1296, "mtrl": 1297, "wght": 1298, "lx": 1299, "wtd": 1300, "prm": 1301, "cdmc": 1302, "rlgs": 1303, "sght": 1304, "plsh": 1305, "cldnt": 1306, "dsk": 1307, "wrry": 1308, "rgmnt": 1309, "srprsd": 1310, "srv": 1311, "scn": 1312, "rvw": 1313, "ltn": 1314, "rspnsbl": 1315, "cmdy": 1316, "clmb": 1317, "srnm": 1318, "scrn": 1319, "prgrms": 1320, "hst": 1321, "kssd": 1322, "mnstry": 1323, "mchgn": 1324, "wsh": 1325, "ltnnt": 1326, "sctt": 1327, "llw": 1328, "mg": 1329, "hg": 1330, "frms": 1331, "crprtn": 1332, "sprt": 1333, "wbst": 1334, "nswrd": 1335, "chrctrs": 1336, "jr": 1337, "lgh": 1338, "xtndd": 1339, "prblms": 1340, "drs": 1341, "sydny": 1342, "thrty": 1343, "nds": 1344, "sds": 1345, "sttd": 1346, "shr": 1347, "drss": 1348, "frncsc": 1349, "flyng": 1350, "rqrd": 1351, "chngs": 1352, "fsh": 1353, "mjrty": 1354, "shrggd": 1355, "trbl": 1356, "prsnc": 1357, "llns": 1358, "lympc": 1359, "lctrc": 1360, "dgtl": 1361, "rcnt": 1362, "mxd": 1363, "grdn": 1364, "chmpns": 1365, "rnmd": 1366, "sldrs": 1367, "hndd": 1368, "cnvrstn": 1369, "rmmbrd": 1370, "wndrd": 1371, "ffr": 1372, "cnt": 1373, "wnr": 1374, "prps": 1375, "mltpl": 1376, "cntn": 1377, "plcy": 1378, "swdsh": 1379, "dpty": 1380, "mx": 1381, "gllry": 1382, "crckt": 1383, "jrsy": 1384, "srprs": 1385, "splt": 1386, "ntns": 1387, "scndry": 1388, "chrg": 1389, "stl": 1390, "ttmpt": 1391, "jwsh": 1392, "vdnc": 1393, "cmps": 1394, "gnt": 1395, "ltrtr": 1396, "tny": 1397, "prtcptd": 1398, "cnddt": 1399, "rcntly": 1400, "plnnd": 1401, "hnr": 1402, "pwrfl": 1403, "dnnr": 1404, "sttns": 1405, "cts": 1406, "pth": 1407, "pg": 1408, "crzy": 1409, "cnstrctd": 1410, "styd": 1411, "shps": 1412, "prsntd": 1413, "brdcst": 1414, "dffclt": 1415, "gts": 1416, "bght": 1417, "prmr": 1418, "pllng": 1419, "crw": 1420, "ncl": 1421, "prdcts": 1422, "mntnd": 1423, "strngth": 1424, "clbs": 1425, "dly": 1426, "spcfc": 1427, "rsrv": 1428, "rcs": 1429, "jzz": 1430, "rmnng": 1431, "trvl": 1432, "rdrd": 1433, "nymr": 1434, "shwn": 1435, "prtct": 1436, "crwd": 1437, "prmrly": 1438, "spkng": 1439, "cntct": 1440, "nln": 1441, "trnsfrrd": 1442, "knwldg": 1443, "sly": 1444, "ffrs": 1445, "drvr": 1446, "tmrrw": 1447, "lyng": 1448, "mchn": 1449, "msschstts": 1450, "smllr": 1451, "vst": 1452, "scp": 1453, "lsng": 1454, "chrs": 1455, "grtr": 1456, "pntng": 1457, "srch": 1458, "wndr": 1459, "ntrnc": 1460, "cl": 1461, "rbn": 1462, "kpng": 1463, "scr": 1464, "fcsd": 1465, "mdcn": 1466, "wllms": 1467, "cvrs": 1468, "ffct": 1469, "cntmprry": 1470, "lrnd": 1471, "cmmnly": 1472, "sftwr": 1473, "lttr": 1474, "rchng": 1475, "strrng": 1476, "dm": 1477, "rmvd": 1478, "brnz": 1479, "ftrng": 1480, "drknss": 1481, "ffclly": 1482, "prmnnt": 1483, "sndd": 1484, "dry": 1485, "smwhr": 1486, "prtmnt": 1487, "ctch": 1488, "thrw": 1489, "wys": 1490, "trns": 1491, "ntndd": 1492, "chk": 1493, "hmns": 1494, "ntrtnmnt": 1495, "nmbrs": 1496, "brtn": 1497, "brln": 1498, "jm": 1499, "pprs": 1500, "kns": 1501, "hly": 1502, "chck": 1503, "scncs": 1504, "mprr": 1505, "wrs": 1506, "flly": 1507, "srvs": 1508, "pltfrm": 1509, "ngnr": 1510, "shrtly": 1511, "dfns": 1512, "shrp": 1513, "spprtd": 1514, "srrndng": 1515, "lngsd": 1516, "gncy": 1517, "prvds": 1518, "bb": 1519, "fctn": 1520, "jhnsn": 1521, "rpblcn": 1522, "clrly": 1523, "bds": 1524, "hntr": 1525, "stv": 1526, "scntfc": 1527, "flls": 1528, "drct": 1529, "sccr": 1530, "ndrw": 1531, "crssd": 1532, "pd": 1533, "hshlds": 1534, "crps": 1535, "grc": 1536, "3rd": 1537, "ndstrl": 1538, "lghts": 1539, "sftly": 1540, "nml": 1541, "smhw": 1542, "tchd": 1543, "plnnng": 1544, "cln": 1545, "bdrm": 1546, "trnsprt": 1547, "pcs": 1548, "prchsd": 1549, "hsng": 1550, "xfrd": 1551, "20th": 1552, "sfty": 1553, "frmtn": 1554, "wrppd": 1555, "fllws": 1556, "stpd": 1557, "clmd": 1558, "wrth": 1559, "drft": 1560, "xchng": 1561, "pntr": 1562, "dvdd": 1563, "prncpl": 1564, "mrdr": 1565, "jcksn": 1566, "cmpsr": 1567, "glbl": 1568, "rlrd": 1569, "ngry": 1570, "gvs": 1571, "prms": 1572, "rlf": 1573, "prtnr": 1574, "grnt": 1575, "bgns": 1576, "rtrnng": 1577, "qtly": 1578, "hlds": 1579, "sts": 1580, "wlf": 1581, "gntly": 1582, "ccptd": 1583, "ntn": 1584, "bsds": 1585, "ffrt": 1586, "nbl": 1587, "ngr": 1588, "tchng": 1589, "twlv": 1590, "shrd": 1591, "jsn": 1592, "flwrs": 1593, "mncpl": 1594, "ddctd": 1595, "swrd": 1596, "crd": 1597, "mtrs": 1598, "pssbly": 1599, "crcl": 1600, "wrkrs": 1601, "mssng": 1602, "cllng": 1603, "srh": 1604, "trl": 1605, "kd": 1606, "pckt": 1607, "dvncd": 1608, "chsn": 1609, "rprsnttv": 1610, "blty": 1611, "frmt": 1612, "ssgnd": 1613, "nrthwst": 1614, "prjcts": 1615, "cnnctd": 1616, "prtctn": 1617, "rprsnttvs": 1618, "drp": 1619, "trp": 1620, "bchlr": 1621, "rsk": 1622, "wrrd": 1623, "ncrsd": 1624, "rchtctr": 1625, "gnd": 1626, "hdqrtrs": 1627, "chllng": 1628, "lstn": 1629, "fllng": 1630, "prssr": 1631, "dctd": 1632, "rtcl": 1633, "strts": 1634, "hng": 1635, "lnggs": 1636, "hghly": 1637, "crm": 1638, "lgsltv": 1639, "drvng": 1640, "wv": 1641, "dsgntd": 1642, "rchstr": 1643, "plnts": 1644, "rgnzd": 1645, "rf": 1646, "lck": 1647, "thrfr": 1648, "tchncl": 1649, "trffc": 1650, "sqd": 1651, "css": 1652, "mssd": 1653, "fm": 1654, "vsn": 1655, "brzl": 1656, "ry": 1657, "grdt": 1658, "srcs": 1659, "ldst": 1660, "drms": 1661, "lbrl": 1662, "chrstms": 1663, "strm": 1664, "sxth": 1665, "sthst": 1666, "qlty": 1667, "crtcl": 1668, "bbc": 1669, "dstryd": 1670, "trnt": 1671, "hrtg": 1672, "hrry": 1673, "mmrl": 1674, "vt": 1675, "snw": 1676, "ttls": 1677, "hds": 1678, "pprntly": 1679, "nmntd": 1680, "thsnd": 1681, "brnd": 1682, "fnctn": 1683, "dstrbtn": 1684, "ntrstd": 1685, "lrn": 1686, "prtng": 1687, "plsr": 1688, "ppst": 1689, "zn": 1690, "skng": 1691, "vlm": 1692, "frgt": 1693, "nknwn": 1694, "pltcs": 1695, "nmls": 1696, "nrwgn": 1697, "sqdrn": 1698, "lrnng": 1699, "gttn": 1700, "dnsty": 1701, "hlls": 1702, "ndvdls": 1703, "tylr": 1704, "lp": 1705, "vllgs": 1706, "xpln": 1707, "pctrs": 1708, "lttrs": 1709, "ffcrs": 1710, "shd": 1711, "shkng": 1712, "prdct": 1713, "jk": 1714, "kllng": 1715, "grmnt": 1716, "jnt": 1717, "pstv": 1718, "fndng": 1719, "flds": 1720, "rsdnts": 1721, "rchtct": 1722, "ntry": 1723, "cpcty": 1724, "ttld": 1725, "pssng": 1726, "lmnts": 1727, "drssd": 1728, "nflnc": 1729, "ncm": 1730, "fclty": 1731, "wdn": 1732, "qpmnt": 1733, "jrnlst": 1734, "xplnd": 1735, "frvr": 1736, "sggstd": 1737, "fnls": 1738, "hstd": 1739, "crry": 1740, "cnsttncy": 1741, "nrrw": 1742, "wnnrs": 1743, "prc": 1744, "krn": 1745, "tlntc": 1746, "lckd": 1747, "wngs": 1748, "phldlph": 1749, "cmbrdg": 1750, "dngrs": 1751, "nrthst": 1752, "lwyr": 1753, "fcd": 1754, "sccdd": 1755, "pprch": 1756, "cmtry": 1757, "sks": 1758, "vl": 1759, "prncss": 1760, "rstrnt": 1761, "psds": 1762, "smlng": 1763, "hndl": 1764, "cmbnd": 1765, "mssg": 1766, "ntrly": 1767, "kr": 1768, "frncs": 1769, "hpd": 1770, "fclts": 1771, "ccrrd": 1772, "fdrtn": 1773, "prpsd": 1774, "clsss": 1775, "pnk": 1776, "rsng": 1777, "rlty": 1778, "typclly": 1779, "mscn": 1780, "clm": 1781, "tlls": 1782, "mtn": 1783, "frsh": 1784, "drwn": 1785, "nvrnmnt": 1786, "bwl": 1787, "lvls": 1788, "ryn": 1789, "hght": 1790, "hpng": 1791, "ppld": 1792, "tnns": 1793, "dtrmnd": 1794, "pkstn": 1795, "crtnly": 1796, "hl": 1797, "ctvty": 1798, "ptry": 1799, "srl": 1800, "chmbr": 1801, "brthng": 1802, "mxcn": 1803, "nmy": 1804, "ntc": 1805, "clsscl": 1806, "nfntry": 1807, "ftrnn": 1808, "crflly": 1809, "pk": 1810, "wscnsn": 1811, "rmd": 1812, "cncpt": 1813, "cntnt": 1814, "pssngr": 1815, "grwth": 1816, "snppd": 1817, "bcms": 1818, "swdn": 1819, "shpd": 1820, "wlsn": 1821, "rlz": 1822, "grds": 1823, "wpns": 1824, "yrds": 1825, "sprm": 1826, "frdm": 1827, "prdc": 1828, "brfly": 1829, "wb": 1830, "typs": 1831, "dsr": 1832, "ltrry": 1833, "plt": 1834, "wdly": 1835, "sthwst": 1836, "sck": 1837, "drg": 1838, "cry": 1839, "bvsly": 1840, "jmpd": 1841, "cncrt": 1842, "nthrlnds": 1843, "fmlr": 1844, "jss": 1845, "xtr": 1846, "lttng": 1847, "prst": 1848, "rfsd": 1849, "nwly": 1850, "prmtn": 1851, "xpndd": 1852, "dft": 1853, "trps": 1854, "prfrmng": 1855, "ncssry": 1856, "dstrcts": 1857, "cnfsd": 1858, "lbr": 1859, "crwn": 1860, "slppd": 1861, "ssd": 1862, "dcmntry": 1863, "cndtns": 1864, "twns": 1865, "dmttd": 1866, "cnnctn": 1867, "shck": 1868, "knf": 1869, "bllbrd": 1870, "ccnt": 1871, "btnd": 1872, "dtls": 1873, "ntrnt": 1874, "mnnst": 1875, "rnk": 1876, "phlsphy": 1877, "rctn": 1878, "dlt": 1879, "grntd": 1880, "clnl": 1881, "4th": 1882, "cptrd": 1883, "brf": 1884, "vhcl": 1885, "ndpndnc": 1886, "hddn": 1887, "cmmssnd": 1888, "dctnl": 1889, "prvncl": 1890, "pttng": 1891, "dvs": 1892, "bthrm": 1893, "ldrshp": 1894, "nghbrhd": 1895, "clls": 1896, "gnrtn": 1897, "jw": 1898, "xstnc": 1899, "psh": 1900, "rltns": 1901, "mrkd": 1902, "dptd": 1903, "rsns": 1904, "mgn": 1905, "trtmnt": 1906, "stck": 1907, "sndy": 1908, "nsprd": 1909, "bc": 1910, "nlss": 1911, "mp": 1912, "lstng": 1913, "stphn": 1914, "stnds": 1915, "pwrs": 1916, "fly": 1917, "grwn": 1918, "chrl": 1919, "bty": 1920, "mprl": 1921, "qlfd": 1922, "scrng": 1923, "pstns": 1924, "grnnd": 1925, "rll": 1926, "nlyss": 1927, "mtt": 1928, "pprtnty": 1929, "dclrd": 1930, "sngng": 1931, "mmnts": 1932, "plm": 1933, "cmmnts": 1934, "sstrs": 1935, "ty": 1936, "hvly": 1937, "rvltn": 1938, "mrrr": 1939, "thrws": 1940, "srrndd": 1941, "lghng": 1942, "ffcts": 1943, "crryng": 1944, "mssr": 1945, "spnd": 1946, "dfntly": 1947, "dspprd": 1948, "ntrr": 1949, "shdw": 1950, "shftd": 1951, "brkng": 1952, "knss": 1953, "rdrs": 1954, "km\u00b2": 1955, "chks": 1956, "yrd": 1957, "clssc": 1958, "dss": 1959, "qrtr": 1960, "mscw": 1961, "wds": 1962, "fshn": 1963, "nvtd": 1964, "tlkd": 1965, "nlk": 1966, "ptrck": 1967, "pblctn": 1968, "pblshng": 1969, "mtrpltn": 1970, "dmg": 1971, "rprsntng": 1972, "frwnd": 1973, "wddng": 1974, "mtr": 1975, "lws": 1976, "ltrntv": 1977, "cnsrvtv": 1978, "ndrstd": 1979, "nq": 1980, "ptntl": 1981, "lyrcs": 1982, "bsc": 1983, "lbrt": 1984, "mthd": 1985, "cndctd": 1986, "rsrcs": 1987, "mlbrn": 1988, "fck": 1989, "shll": 1990, "jnng": 1991, "glnc": 1992, "cncr": 1993, "ngl": 1994, "brnng": 1995, "thltc": 1996, "prprd": 1997, "mttrd": 1998, "rchl": 1999, "ccdnt": 2000, "ffrts": 2001, "strck": 2002, "rvld": 2003, "wltr": 2004, "drwng": 2005, "ncrs": 2006, "rw": 2007, "fctry": 2008, "shwng": 2009, "mpct": 2010, "nrwy": 2011, "clsly": 2012, "chs": 2013, "clrd": 2014, "brdcstng": 2015, "rr": 2016, "sddn": 2017, "rnkd": 2018, "rtcls": 2019, "jmp": 2020, "fx": 2021, "mllr": 2022, "grndfthr": 2023, "flsh": 2024, "hlpng": 2025, "bsy": 2026, "mrgd": 2027, "wns": 2028, "fgrs": 2029, "hngng": 2030, "lcky": 2031, "cntst": 2032, "bndnd": 2033, "dty": 2034, "rvws": 2035, "trky": 2036, "vts": 2037, "ttrny": 2038, "dfnd": 2039, "wrstlng": 2040, "hts": 2041, "wntng": 2042, "fnshng": 2043, "fftn": 2044, "stdyng": 2045, "ccpd": 2046, "hrng": 2047, "xhbtn": 2048, "ntllgnc": 2049, "wthr": 2050, "frhd": 2051, "cthdrl": 2052, "prfrmncs": 2053, "hrrr": 2054, "spkn": 2055, "sffrd": 2056, "mll": 2057, "tnnss": 2058, "cncrnd": 2059, "vvdshp": 2060, "vmprs": 2061, "flln": 2062, "prvdng": 2063, "sldr": 2064, "rspctvly": 2065, "dscrptn": 2066, "shtd": 2067, "rgnztns": 2068, "czch": 2069, "cmprd": 2070, "crtng": 2071, "drvd": 2072, "ldrs": 2073, "cnfrmd": 2074, "ffcs": 2075, "cmr": 2076, "grss": 2077, "brck": 2078, "cvrng": 2079, "xprss": 2080, "cnsstd": 2081, "nnr": 2082, "slpng": 2083, "pblctns": 2084, "mlt": 2085, "ndng": 2086, "srsly": 2087, "flngs": 2088, "qnslnd": 2089, "chrst": 2090, "sb": 2091, "brngng": 2092, "sls": 2093, "mpssbl": 2094, "cmmnst": 2095, "llnc": 2096, "rfrnc": 2097, "trksh": 2098, "cv": 2099, "rfrs": 2100, "lrgly": 2101, "wkly": 2102, "cmbt": 2103, "td": 2104, "pprchd": 2105, "smk": 2106, "rllng": 2107, "blly": 2108, "spprtng": 2109, "mbl": 2110, "njry": 2111, "cmmnctns": 2112, "dnsh": 2113, "flk": 2114, "ssmd": 2115, "wpn": 2116, "lctrnc": 2117, "trly": 2118, "cbnt": 2119, "clck": 2120, "llwng": 2121, "wldnt": 2122, "lndng": 2123, "grtst": 2124, "rzn": 2125, "prgrmm": 2126, "hrss": 2127, "lmntry": 2128, "sxl": 2129, "nch": 2130, "18th": 2131, "jrny": 2132, "dntfd": 2133, "ncrprtd": 2134, "trnsfr": 2135, "grcltrl": 2136, "nthny": 2137, "cntnng": 2138, "ssct": 2139, "nhbtnts": 2140, "svnth": 2141, "rgns": 2142, "nvrnmntl": 2143, "mtrls": 2144, "knght": 2145, "rprts": 2146, "htd": 2147, "trgt": 2148, "dtng": 2149, "rtrmnt": 2150, "dynsty": 2151, "brds": 2152, "mrylnd": 2153, "prcnt": 2154, "dsply": 2155, "chpl": 2156, "cmc": 2157, "spply": 2158, "clmt": 2159, "prkng": 2160, "prgrmmng": 2161, "lstnng": 2162, "nfl": 2163, "chvd": 2164, "vstd": 2165, "lvn": 2166, "dv": 2167, "vrsns": 2168, "flw": 2169, "mgs": 2170, "fxd": 2171, "kntcky": 2172, "bnds": 2173, "jnctn": 2174, "fstr": 2175, "shtng": 2176, "dvlp": 2177, "csn": 2178, "sllng": 2179, "sgh": 2180, "tnnl": 2181, "bls": 2182, "rnnr": 2183, "drgn": 2184, "wllng": 2185, "dngr": 2186, "hwrd": 2187, "prprts": 2188, "fvrt": 2189, "cncrn": 2190, "5th": 2191, "dts": 2192, "vs": 2193, "tc": 2194, "phlppns": 2195, "ttckd": 2196, "fls": 2197, "stmtd": 2198, "khn": 2199, "jff": 2200, "prx": 2201, "lthr": 2202, "rcv": 2203, "hppnng": 2204, "kt": 2205, "kvn": 2206, "hshld": 2207, "bnt": 2208, "chldhd": 2209, "cndtn": 2210, "xpct": 2211, "cnvntn": 2212, "dffrnc": 2213, "sngwrtr": 2214, "ndrstndng": 2215, "rds": 2216, "crct": 2217, "swss": 2218, "crfl": 2219, "wlkr": 2220, "crssng": 2221, "ttchd": 2222, "fnny": 2223, "nrvs": 2224, "lnds": 2225, "mdls": 2226, "trdtn": 2227, "ffty": 2228, "nstttn": 2229, "crmnl": 2230, "bttln": 2231, "rcvng": 2232, "scnt": 2233, "hdng": 2234, "nywhr": 2235, "klly": 2236, "fth": 2237, "mmrs": 2238, "jrdn": 2239, "bvs": 2240, "mrgn": 2241, "jhnny": 2242, "dwntwn": 2243, "sklls": 2244, "chmcl": 2245, "shs": 2246, "ntrvw": 2247, "twstd": 2248, "hrdr": 2249, "wrst": 2250, "strdy": 2251, "fcng": 2252, "ccrs": 2253, "shwr": 2254, "hstrn": 2255, "ddrss": 2256, "bgrphy": 2257, "rgstrd": 2258, "frty": 2259, "mxmm": 2260, "rgr": 2261, "prtgs": 2262, "crtcs": 2263, "wndrng": 2264, "brgh": 2265, "frqntly": 2266, "stblshmnt": 2267, "lnk": 2268, "lts": 2269, "sgnl": 2270, "mthmtcs": 2271, "cnmcs": 2272, "cllctd": 2273, "trpcl": 2274, "brzln": 2275, "rspct": 2276, "bckng": 2277, "wrnng": 2278, "lndd": 2279, "dcs": 2280, "pshng": 2281, "mnchstr": 2282, "wrldwd": 2283, "xstng": 2284, "bjct": 2285, "csng": 2286, "brgd": 2287, "grdtng": 2288, "cmmnctn": 2289, "tsk": 2290, "dfnc": 2291, "fgrd": 2292, "clsng": 2293, "brnchs": 2294, "rltvly": 2295, "dstngshd": 2296, "ccpt": 2297, "swtzrlnd": 2298, "gft": 2299, "dncng": 2300, "cps": 2301, "dmndd": 2302, "shdws": 2303, "fnds": 2304, "prsdntl": 2305, "rsgnd": 2306, "hps": 2307, "rrstd": 2308, "dcd": 2309, "rsdnc": 2310, "ctns": 2311, "nkd": 2312, "cntrlld": 2313, "nclr": 2314, "physcs": 2315, "rptd": 2316, "mdn": 2317, "ndrgrnd": 2318, "ctzns": 2319, "rcgntn": 2320, "hngrn": 2321, "rprsnt": 2322, "psss": 2323, "lctrl": 2324, "rcks": 2325, "bggst": 2326, "pplctn": 2327, "qbc": 2328, "prfrm": 2329, "crdt": 2330, "frndly": 2331, "xst": 2332, "csh": 2333, "strk": 2334, "slctn": 2335, "bns": 2336, "scrmd": 2337, "djcnt": 2338, "sntr": 2339, "rrngd": 2340, "wrtrs": 2341, "cnl": 2342, "chrts": 2343, "cmpstn": 2344, "rgh": 2345, "frdrck": 2346, "lnch": 2347, "hrvrd": 2348, "ctgry": 2349, "jmmy": 2350, "glf": 2351, "phlp": 2352, "mntl": 2353, "rvrs": 2354, "mssv": 2355, "pntngs": 2356, "hllwy": 2357, "hmltn": 2358, "ttlly": 2359, "rdg": 2360, "sbsqnt": 2361, "dmt": 2362, "nvrs": 2363, "cmpt": 2364, "gds": 2365, "prmsd": 2366, "ntrnl": 2367, "cnvrtd": 2368, "bnks": 2369, "cly": 2370, "trphy": 2371, "tl": 2372, "gtrst": 2373, "llws": 2374, "srvy": 2375, "ndrsn": 2376, "phs": 2377, "tnk": 2378, "ck": 2379, "prlmntry": 2380, "cnstttn": 2381, "nttld": 2382, "cnmy": 2383, "njy": 2384, "rsltd": 2385, "crmny": 2386, "chngng": 2387, "wlcm": 2388, "slt": 2389, "sttstcs": 2390, "cnsdr": 2391, "wknd": 2392, "svd": 2393, "prdctns": 2394, "grb": 2395, "schdld": 2396, "lnng": 2397, "dgls": 2398, "lc": 2399, "srvvd": 2400, "clng": 2401, "vsl": 2402, "cpbl": 2403, "dmstc": 2404, "mrmrd": 2405, "wshd": 2406, "nrmlly": 2407, "spcfclly": 2408, "dsrt": 2409, "ntrstng": 2410, "dvc": 2411, "cnts": 2412, "ltd": 2413, "dsgnr": 2414, "smrt": 2415, "spch": 2416, "rlgn": 2417, "njyd": 2418, "clrk": 2419, "prdcng": 2420, "prtctd": 2421, "thrts": 2422, "brkfst": 2423, "tky": 2424, "tchrs": 2425, "clmbd": 2426, "nggd": 2427, "ghst": 2428, "mkp": 2429, "stm": 2430, "sprtd": 2431, "flws": 2432, "dcds": 2433, "typcl": 2434, "nbdy": 2435, "mrgncy": 2436, "mrgrt": 2437, "rsltng": 2438, "grcltr": 2439, "brst": 2440, "lncln": 2441, "vhcls": 2442, "swmmng": 2443, "wtrs": 2444, "spll": 2445, "ppstn": 2446, "crl": 2447, "chrltt": 2448, "tx": 2449, "rgnstn": 2450, "mplyd": 2451, "thltcs": 2452, "dntty": 2453, "swllwd": 2454, "dyng": 2455, "frml": 2456, "mdvl": 2457, "rdcd": 2458, "mscns": 2459, "cmcs": 2460, "xtnsv": 2461, "ylld": 2462, "dnbrgh": 2463, "frgttn": 2464, "vcs": 2465, "dbln": 2466, "jckt": 2467, "rgntn": 2468, "dghtrs": 2469, "kckd": 2470, "tmprtr": 2471, "ttmptd": 2472, "njrd": 2473, "cnsstng": 2474, "rgrdd": 2475, "prsnnl": 2476, "dscvry": 2477, "jnthn": 2478, "stndrds": 2479, "mzng": 2480, "ms": 2481, "thrtnd": 2482, "mly": 2483, "brthdy": 2484, "hnt": 2485, "klhm": 2486, "schdl": 2487, "gthrd": 2488, "bsnssmn": 2489, "dsnt": 2490, "lln": 2491, "nstttns": 2492, "nvstgtn": 2493, "mscls": 2494, "ffrng": 2495, "smwht": 2496, "vtnm": 2497, "kn": 2498, "dvlpng": 2499, "clms": 2500, "xprncd": 2501, "mtthw": 2502, "mdm": 2503, "pprvd": 2504, "wvd": 2505, "mrry": 2506, "prgrss": 2507, "sssn": 2508, "17th": 2509, "trnsltd": 2510, "rsdntl": 2511, "msssspp": 2512, "fnnc": 2513, "spps": 2514, "sngpr": 2515, "prmrd": 2516, "rmndd": 2517, "kngs": 2518, "srvv": 2519, "ttmpts": 2520, "whspr": 2521, "strctrs": 2522, "frmng": 2523, "nvstmnt": 2524, "fghtr": 2525, "sll": 2526, "cnflct": 2527, "gmn": 2528, "hms": 2529, "hrdly": 2530, "hstn": 2531, "dgrs": 2532, "xpnsn": 2533, "hdnt": 2534, "fnctns": 2535, "pnc": 2536, "tlnt": 2537, "rghly": 2538, "mthds": 2539, "dfnsv": 2540, "nncrprtd": 2541, "drnkng": 2542, "wlsh": 2543, "xtrmly": 2544, "nflncd": 2545, "tml": 2546, "shft": 2547, "lwrd": 2548, "dck": 2549, "drwy": 2550, "wvs": 2551, "scrm": 2552, "6th": 2553, "lds": 2554, "sgr": 2555, "lcs": 2556, "blnkd": 2557, "cryng": 2558, "crds": 2559, "trnsprttn": 2560, "cmmnwlth": 2561, "trb": 2562, "ffctv": 2563, "lsn": 2564, "strrd": 2565, "prpr": 2566, "fns": 2567, "xpdtn": 2568, "cnsrvtn": 2569, "dnmrk": 2570, "cnnctct": 2571, "lwrnc": 2572, "mvs": 2573, "ctl": 2574, "prfctly": 2575, "prvnt": 2576, "cntrbtd": 2577, "shppng": 2578, "cmfrtbl": 2579, "pnnsl": 2580, "ndmc": 2581, "js\u00e9": 2582, "fshng": 2583, "gypt": 2584, "xstd": 2585, "dply": 2586, "bttn": 2587, "dstrbtd": 2588, "sndng": 2589, "pplctns": 2590, "gr": 2591, "qlfyng": 2592, "prft": 2593, "hppns": 2594, "dlls": 2595, "nsrnc": 2596, "btng": 2597, "sgns": 2598, "prtnrshp": 2599, "cmbntn": 2600, "thsnds": 2601, "drty": 2602, "trrbl": 2603, "lclty": 2604, "gbrl": 2605, "ntrdctn": 2606, "dvntg": 2607, "bldy": 2608, "vlnc": 2609, "vnn": 2610, "jln": 2611, "cnsctv": 2612, "gnrd": 2613, "ttcks": 2614, "ngns": 2615, "rcrdngs": 2616, "chrchs": 2617, "tstndng": 2618, "prpl": 2619, "clthng": 2620, "nstntly": 2621, "plstc": 2622, "styng": 2623, "crtr": 2624, "crls": 2625, "mttrs": 2626, "rsc": 2627, "vstng": 2628, "fctnl": 2629, "ltmtly": 2630, "mntrl": 2631, "vsbl": 2632, "rlst": 2633, "16th": 2634, "ql": 2635, "flg": 2636, "srchng": 2637, "rfl": 2638, "dvnc": 2639, "schlr": 2640, "rshd": 2641, "blgm": 2642, "jcb": 2643, "dtrt": 2644, "drt": 2645, "drctrs": 2646, "mc": 2647, "ctd": 2648, "grnds": 2649, "blln": 2650, "kck": 2651, "ttnd": 2652, "nvls": 2653, "mrcns": 2654, "fntsy": 2655, "bckd": 2656, "dtd": 2657, "lghtr": 2658, "hbtt": 2659, "dzn": 2660, "kys": 2661, "crtv": 2662, "shvd": 2663, "bts": 2664, "7th": 2665, "nghts": 2666, "whts": 2667, "ncdnt": 2668, "chckd": 2669, "hntng": 2670, "mplys": 2671, "prfl": 2672, "pssngrs": 2673, "sttmnt": 2674, "mrshll": 2675, "frsts": 2676, "sccssflly": 2677, "vtn": 2678, "bjcts": 2679, "hllywd": 2680, "rglrly": 2681, "lndscp": 2682, "dpr": 2683, "clny": 2684, "fldd": 2685, "nsl": 2686, "rbbd": 2687, "cmpttns": 2688, "spkr": 2689, "knt": 2690, "pprng": 2691, "cbn": 2692, "dtctv": 2693, "knckd": 2694, "trmnl": 2695, "rtstc": 2696, "jl": 2697, "rqst": 2698, "blk": 2699, "cnddts": 2700, "dstnct": 2701, "strtchd": 2702, "blngd": 2703, "crdtd": 2704, "hrrs": 2705, "yd": 2706, "chrstphr": 2707, "sttl": 2708, "bhvr": 2709, "hndrds": 2710, "hny": 2711, "ntrng": 2712, "clssfctn": 2713, "mbssdr": 2714, "sprngs": 2715, "sngh": 2716, "mtns": 2717, "trnsltn": 2718, "gntl": 2719, "fnnsh": 2720, "grlfrnd": 2721, "mrchnt": 2722, "tssd": 2723, "ppntmnt": 2724, "sctr": 2725, "dmnd": 2726, "trty": 2727, "xmpls": 2728, "pttrn": 2729, "mrks": 2730, "dst": 2731, "chrgd": 2732, "cchng": 2733, "rmnzd": 2734, "flwr": 2735, "ndy": 2736, "yngst": 2737, "ccsnlly": 2738, "sctns": 2739, "grhm": 2740, "drvn": 2741, "mstk": 2742, "rsstnc": 2743, "slmmd": 2744, "bsrvd": 2745, "brc": 2746, "crystl": 2747, "prv": 2748, "spndng": 2749, "rrvl": 2750, "bsltly": 2751, "wndd": 2752, "prchs": 2753, "mlys": 2754, "wrrn": 2755, "cnstnt": 2756, "grdns": 2757, "lcnsd": 2758, "stllt": 2759, "wndrfl": 2760, "kllr": 2761, "pgs": 2762, "sbstn": 2763, "chmstry": 2764, "cmmssnr": 2765, "xtnsn": 2766, "dlvrd": 2767, "hln": 2768, "stblsh": 2769, "mprtnc": 2770, "nvsn": 2771, "blnc": 2772, "rnkng": 2773, "hngry": 2774, "frdy": 2775, "rb": 2776, "rspnsblty": 2777, "ndns": 2778, "nrmn": 2779, "byfrnd": 2780, "mstrs": 2781, "rmntc": 2782, "12th": 2783, "cnsdrng": 2784, "ntrsts": 2785, "mslm": 2786, "cycl": 2787, "cnnr": 2788, "mnnr": 2789, "bsn": 2790, "ghth": 2791, "prmt": 2792, "rtllry": 2793, "dbtd": 2794, "tghtly": 2795, "lly": 2796, "nchs": 2797, "dgs": 2798, "lbrtry": 2799, "ntbly": 2800, "ncrsng": 2801, "frnkln": 2802, "strp": 2803, "ffcls": 2804, "crsh": 2805, "lvtn": 2806, "blgn": 2807, "ftrwrds": 2808, "nchls": 2809, "ptnts": 2810, "fvr": 2811, "hvn": 2812, "lgnd": 2813, "cmpltn": 2814, "nvrsts": 2815, "trvld": 2816, "mvmnts": 2817, "jy": 2818, "nrst": 2819, "brdwy": 2820, "swng": 2821, "rld": 2822, "13th": 2823, "prtnrs": 2824, "rprsnts": 2825, "shrff": 2826, "bndry": 2827, "btch": 2828, "schlrshp": 2829, "strg": 2830, "sqzd": 2831, "blcks": 2832, "gspd": 2833, "rssll": 2834, "clspn": 2835, "rfrm": 2836, "blnd": 2837, "brshd": 2838, "msr": 2839, "rgrdng": 2840, "nstlld": 2841, "mrcs": 2842, "scrmng": 2843, "strngr": 2844, "ntrrptd": 2845, "glty": 2846, "dbls": 2847, "ppsd": 2848, "dms": 2849, "prtgl": 2850, "nswrs": 2851, "dvntr": 2852, "slk": 2853, "wnrs": 2854, "clrs": 2855, "krnn": 2856, "prsns": 2857, "srly": 2858, "ccr": 2859, "dsprt": 2860, "ccmpnd": 2861, "cntrbtns": 2862, "bdly": 2863, "prch": 2864, "chss": 2865, "nstnt": 2866, "dnny": 2867, "vws": 2868, "nrs": 2869, "vcl": 2870, "grndmthr": 2871, "rchs": 2872, "cmmttd": 2873, "wrn": 2874, "nvrsl": 2875, "cnm": 2876, "cllbrtn": 2877, "lctrcl": 2878, "dscrbs": 2879, "crcktr": 2880, "nstrmnts": 2881, "clvlnd": 2882, "xcs": 2883, "nlsn": 2884, "sclst": 2885, "kssng": 2886, "8th": 2887, "lfrd": 2888, "vncnt": 2889, "mts": 2890, "dlts": 2891, "cpr": 2892, "mnfctrng": 2893, "xt": 2894, "stns": 2895, "shckd": 2896, "jsh": 2897, "hldy": 2898, "lcns": 2899, "ph": 2900, "vctrn": 2901, "drgs": 2902, "whlst": 2903, "rspndd": 2904, "pms": 2905, "scpd": 2906, "thrn": 2907, "knck": 2908, "vrywhr": 2909, "chrty": 2910, "ystrdy": 2911, "thrwng": 2912, "slmc": 2913, "btl": 2914, "pkd": 2915, "mntd": 2916, "rknss": 2917, "lvr": 2918, "prtcpt": 2919, "nh": 2920, "mrktng": 2921, "crts": 2922, "pht": 2923, "cmmndd": 2924, "dsgns": 2925, "cptr": 2926, "strggld": 2927, "rpttn": 2928, "rvltnry": 2929, "blst": 2930, "rhythm": 2931, "pblshr": 2932, "ptnt": 2933, "dstnt": 2934, "lqd": 2935, "cmptng": 2936, "ngtv": 2937, "mmbrshp": 2938, "stgs": 2939, "cmpbll": 2940, "hnrry": 2941, "cttng": 2942, "lstnd": 2943, "rpdly": 2944, "cnfsn": 2945, "bnch": 2946, "tmprry": 2947, "thmb": 2948, "slpt": 2949, "mngst": 2950, "10th": 2951, "scns": 2952, "thmpsn": 2953, "vstrs": 2954, "lnkd": 2955, "cntstd": 2956, "fnlnd": 2957, "clssfd": 2958, "dstry": 2959, "cnvncd": 2960, "xpsd": 2961, "pm": 2962, "rvvl": 2963, "dftng": 2964, "nnvrsry": 2965, "bw": 2966, "dvsns": 2967, "dcmnts": 2968, "bltmr": 2969, "nv": 2970, "pnn": 2971, "fckng": 2972, "thnc": 2973, "wrrrs": 2974, "frnchs": 2975, "msn": 2976, "rplc": 2977, "mnmnt": 2978, "crprt": 2979, "smmt": 2980, "bggr": 2981, "rnds": 2982, "ffltd": 2983, "scntst": 2984, "ltrlly": 2985, "yrkshr": 2986, "vssl": 2987, "15th": 2988, "jrkd": 2989, "slr": 2990, "phtgrphy": 2991, "wrrr": 2992, "frmlly": 2993, "rpd": 2994, "pwrd": 2995, "prfctr": 2996, "sbrb": 2997, "ssstnc": 2998, "rcl": 2999, "stwrt": 3000, "crrct": 3001, "crld": 3002, "rg": 3003, "mystry": 3004, "mprv": 3005, "rcky": 3006, "nrrwd": 3007, "prpss": 3008, "brklyn": 3009, "dpth": 3010, "bbby": 3011, "sbjcts": 3012, "tstng": 3013, "rlns": 3014, "strggl": 3015, "hh": 3016, "rchtctrl": 3017, "cmfrt": 3018, "wyn": 3019, "pttsbrgh": 3020, "prgnnt": 3021, "hmpshr": 3022, "sxtn": 3023, "ffctd": 3024, "mlk": 3025, "vtd": 3026, "prkr": 3027, "knndy": 3028, "rspnd": 3029, "glsgw": 3030, "dvl": 3031, "sxy": 3032, "hnrs": 3033, "14th": 3034, "nncnt": 3035, "lgsltr": 3036, "tchnqs": 3037, "srbn": 3038, "gsts": 3039, "dscrb": 3040, "dmrl": 3041, "bngldsh": 3042, "fctr": 3043, "dsc": 3044, "tls": 3045, "fnt": 3046, "rprtr": 3047, "dscnt": 3048, "brdrs": 3049, "brmnghm": 3050, "bdgt": 3051, "grws": 3052, "nmtd": 3053, "sltn": 3054, "rchbshp": 3055, "plnty": 3056, "xctd": 3057, "mngng": 3058, "dtrmn": 3059, "pssn": 3060, "vllybll": 3061, "mrly": 3062, "tnsn": 3063, "cnnt": 3064, "swpt": 3065, "cthrn": 3066, "ptn": 3067, "krl": 3068, "prlll": 3069, "drmmr": 3070, "spttd": 3071, "lb": 3072, "rsdnt": 3073, "smls": 3074, "dj": 3075, "cllctns": 3076, "pssg": 3077, "ttrctd": 3078, "hnst": 3079, "dc": 3080, "bsh": 3081, "vy": 3082, "srgry": 3083, "ntrsctn": 3084, "thlnd": 3085, "ttmn": 3086, "nstrmntl": 3087, "sqnc": 3088, "cttn": 3089, "nfrtntly": 3090, "trtd": 3091, "bnjmn": 3092, "cmmrc": 3093, "plsd": 3094, "brw": 3095, "flshd": 3096, "dmtr": 3097, "bstrd": 3098, "hsts": 3099, "crrdr": 3100, "prnt": 3101, "trdng": 3102, "dfndng": 3103, "jrry": 3104, "q": 3105, "stnly": 3106, "sspctd": 3107, "rcgnz": 3108, "bkr": 3109, "ctvst": 3110, "mtchll": 3111, "sprr": 3112, "lvrpl": 3113, "slght": 3114, "ndx": 3115, "rcptn": 3116, "phd": 3117, "lsts": 3118, "dnld": 3119, "rply": 3120, "symphny": 3121, "bsnsss": 3122, "thlt": 3123, "9th": 3124, "cbl": 3125, "thrwn": 3126, "prtst": 3127, "prtlnd": 3128, "grwld": 3129, "lcy": 3130, "scd": 3131, "ccptn": 3132, "lngst": 3133, "mprvd": 3134, "wrght": 3135, "mrrs": 3136, "blngs": 3137, "vns": 3138, "pnl": 3139, "tghtnd": 3140, "prgrssv": 3141, "rtrns": 3142, "prsnlty": 3143, "hsttd": 3144, "lvtr": 3145, "clmn": 3146, "qvlnt": 3147, "xct": 3148, "ggrphy": 3149, "ybrws": 3150, "wrmth": 3151, "ndstrs": 3152, "glsss": 3153, "thrtn": 3154, "blng": 3155, "schm": 3156, "crtrs": 3157, "drggd": 3158, "sgnng": 3159, "ctrs": 3160, "snk": 3161, "prdsh": 3162, "ffnsv": 3163, "z": 3164, "11th": 3165, "plcng": 3166, "clnchd": 3167, "rbnsn": 3168, "cpy": 3169, "prks": 3170, "physcn": 3171, "plls": 3172, "fdd": 3173, "jstn": 3174, "xprmntl": 3175, "sndtrck": 3176, "rmt": 3177, "bbl": 3178, "whnvr": 3179, "dvcs": 3180, "dmgd": 3181, "wdth": 3182, "rstrd": 3183, "trnty": 3184, "mnwhl": 3185, "drftd": 3186, "blm": 3187, "jbs": 3188, "xcllnt": 3189, "sffrng": 3190, "mgnd": 3191, "nfrm": 3192, "sldng": 3193, "ndgns": 3194, "thrst": 3195, "hls": 3196, "mdsn": 3197, "strtgy": 3198, "lr": 3199, "rlph": 3200, "ddng": 3201, "dllrs": 3202, "zr": 3203, "prssng": 3204, "ndrnth": 3205, "tbls": 3206, "shrng": 3207, "sccssr": 3208, "mchncl": 3209, "chrtr": 3210, "wnrshp": 3211, "sppls": 3212, "stppng": 3213, "nwhr": 3214, "chckld": 3215, "brry": 3216, "brthd": 3217, "brs": 3218, "kg": 3219, "prtrt": 3220, "nwspprs": 3221, "lftm": 3222, "cpls": 3223, "crtc": 3224, "nthn": 3225, "lph": 3226, "xprt": 3227, "dkt": 3228, "dvn": 3229, "ttndng": 3230, "vctms": 3231, "crcmstncs": 3232, "mlls": 3233, "nflntl": 3234, "grv": 3235, "pnr": 3236, "lmnt": 3237, "ccsd": 3238, "pssblty": 3239, "dlh": 3240, "sclptr": 3241, "rq": 3242, "cltn": 3243, "lghtly": 3244, "nnth": 3245, "xtrm": 3246, "rrly": 3247, "spncr": 3248, "sckd": 3249, "xpctng": 3250, "thlts": 3251, "ndctd": 3252, "bthr": 3253, "swr": 3254, "bmb": 3255, "mdfldr": 3256, "tchnq": 3257, "mncplts": 3258, "srvvng": 3259, "thyr": 3260, "gnts": 3261, "rltv": 3262, "rplcng": 3263, "jrd": 3264, "phl": 3265, "wldlf": 3266, "vds": 3267, "xpnsv": 3268, "ps": 3269, "cstc": 3270, "slntly": 3271, "nl": 3272, "brbr": 3273, "snts": 3274, "rchmnd": 3275, "wpd": 3276, "dmns": 3277, "dpndng": 3278, "sfl": 3279, "sntnc": 3280, "rsrt": 3281, "mdnght": 3282, "chl": 3283, "xctmnt": 3284, "frzn": 3285, "crg": 3286, "rmnn": 3287, "psychlgy": 3288, "trng": 3289, "pns": 3290, "lctrcty": 3291, "trpl": 3292, "ltst": 3293, "hrbr": 3294, "svr": 3295, "prntd": 3296, "rbc": 3297, "lchl": 3298, "trmns": 3299, "tsts": 3300, "vncvr": 3301, "nsstd": 3302, "spts": 3303, "nb": 3304, "msrs": 3305, "rlxd": 3306, "skll": 3307, "rthdx": 3308, "frmly": 3309, "chrgs": 3310, "mmdt": 3311, "swtchd": 3312, "wlks": 3313, "grdtn": 3314, "nz": 3315, "mln": 3316, "gndr": 3317, "mdrd": 3318, "vls": 3319, "nsr": 3320, "ddn": 3321, "spnsrd": 3322, "hns": 3323, "vlnt": 3324, "dscss": 3325, "cmpttv": 3326, "drppng": 3327, "rdnry": 3328, "frndshp": 3329, "lvly": 3330, "ggs": 3331, "frtn": 3332, "rlwys": 3333, "scrts": 3334, "clncl": 3335, "brnrd": 3336, "dvrtsng": 3337, "mndy": 3338, "ptrl": 3339, "cntnntl": 3340, "dncn": 3341, "cstmrs": 3342, "cncldd": 3343, "rcd": 3344, "frntr": 3345, "tdd": 3346, "gyptn": 3347, "rndm": 3348, "vntr": 3349, "btlr": 3350, "pyng": 3351, "cntrst": 3352, "nhl": 3353, "grdlly": 3354, "ksss": 3355, "bnft": 3356, "nrthwstrn": 3357, "ngnrs": 3358, "nvlvng": 3359, "vlntr": 3360, "lm": 3361, "brsh": 3362, "cmpnd": 3363, "symbl": 3364, "rplcmnt": 3365, "rd1": 3366, "tgr": 3367, "slv": 3368, "phnx": 3369, "lrry": 3370, "hdsn": 3371, "lmt": 3372, "tmmy": 3373, "chclt": 3374, "dths": 3375, "brstl": 3376, "rlvd": 3377, "rtnd": 3378, "ccsns": 3379, "blls": 3380, "xprncs": 3381, "jws": 3382, "jt": 3383, "nstrmnt": 3384, "rnks": 3385, "ntwrks": 3386, "wrnd": 3387, "trvlng": 3388, "trc": 3389, "httng": 3390, "pckng": 3391, "trbtry": 3392, "prry": 3393, "rqr": 3394, "blgy": 3395, "stbl": 3396, "glw": 3397, "bllt": 3398, "pplrty": 3399, "glt": 3400, "msk": 3401, "prmssn": 3402, "mrdrd": 3403, "nmntn": 3404, "trnr": 3405, "mtngs": 3406, "wlthy": 3407, "kyl": 3408, "rmx": 3409, "lghtnng": 3410, "rmv": 3411, "srgnt": 3412, "sssns": 3413, "mgzns": 3414, "xprssd": 3415, "nnlly": 3416, "gp": 3417, "vgs": 3418, "bffl": 3419, "gthrng": 3420, "prsnrs": 3421, "rstd": 3422, "vll": 3423, "prctclly": 3424, "yv": 3425, "strtgc": 3426, "frcng": 3427, "trdd": 3428, "mnhttn": 3429, "schlrs": 3430, "prtnl": 3431, "trppd": 3432, "hndsm": 3433, "bttry": 3434, "pstrs": 3435, "njrs": 3436, "dfntn": 3437, "fry": 3438, "mnfctrr": 3439, "ghtn": 3440, "rnng": 3441, "vlms": 3442, "scrpt": 3443, "spcts": 3444, "clds": 3445, "frqncy": 3446, "ngrl": 3447, "mntnnc": 3448, "frly": 3449, "bjng": 3450, "ccnts": 3451, "sbsdry": 3452, "dsny": 3453, "kth": 3454, "mnch": 3455, "mplymnt": 3456, "trrr": 3457, "hrrsn": 3458, "cncrns": 3459, "sc": 3460, "ptchd": 3461, "mnsn": 3462, "sttstcl": 3463, "clbrtd": 3464, "sbmrn": 3465, "blngng": 3466, "swtch": 3467, "rstng": 3468, "prsrvd": 3469, "crbbn": 3470, "crp": 3471, "grndsn": 3472, "dlng": 3473, "brnt": 3474, "rgd": 3475, "vclst": 3476, "srb": 3477, "dtl": 3478, "glrd": 3479, "cnfdnc": 3480, "dfndr": 3481, "dld": 3482, "dncr": 3483, "ncmbnt": 3484, "vctm": 3485, "strngly": 3486, "wdnd": 3487, "phtgrphr": 3488, "llyd": 3489, "rlss": 3490, "cvlry": 3491, "trry": 3492, "szd": 3493, "dddy": 3494, "prcssng": 3495, "qppd": 3496, "ntgrtd": 3497, "ptch": 3498, "clsst": 3499, "vssls": 3500, "hrm": 3501, "blnkt": 3502, "wrnr": 3503, "rsltn": 3504, "sp": 3505, "nttv": 3506, "gnr": 3507, "clff": 3508, "thghs": 3509, "jrmy": 3510, "frry": 3511, "mrkts": 3512, "sph": 3513, "lsk": 3514, "rlgtd": 3515, "dnns": 3516, "bsnc": 3517, "dstrctn": 3518, "srvnt": 3519, "pltfrms": 3520, "ddtnlly": 3521, "sslt": 3522, "lyr": 3523, "drvrs": 3524, "prtly": 3525, "dcmnt": 3526, "cmpnn": 3527, "trnk": 3528, "ntntn": 3529, "bndrs": 3530, "cmpnnts": 3531, "ccsn": 3532, "cmrn": 3533, "prf": 3534, "cllns": 3535, "dnng": 3536, "mssns": 3537, "cnnctng": 3538, "tlphn": 3539, "trrtrs": 3540, "ncknm": 3541, "kybrds": 3542, "shrs": 3543, "blgcl": 3544, "sprtng": 3545, "hrn": 3546, "mrphy": 3547, "prtlly": 3548, "thns": 3549, "stln": 3550, "crck": 3551, "frmrs": 3552, "spdr": 3553, "zrbjn": 3554, "wthdrw": 3555, "ncmfrtbl": 3556, "bptst": 3557, "tckd": 3558, "smbdy": 3559, "tgh": 3560, "pstd": 3561, "mdtrrnn": 3562, "sggst": 3563, "lmntd": 3564, "cttl": 3565, "dyln": 3566, "tckt": 3567, "cllgs": 3568, "plsnt": 3569, "rctd": 3570, "sct": 3571, "hspnc": 3572, "sthstrn": 3573, "nfrmd": 3574, "lsss": 3575, "dprssn": 3576, "cntxt": 3577, "nvd": 3578, "strgglng": 3579, "knghts": 3580, "tmn": 3581, "llgl": 3582, "rlctd": 3583, "clmbng": 3584, "strtch": 3585, "gddss": 3586, "cncrts": 3587, "chv": 3588, "mchns": 3589, "trnst": 3590, "sprtl": 3591, "prkd": 3592, "jcqs": 3593, "pprvl": 3594, "rprsnttn": 3595, "lld": 3596, "mprssd": 3597, "npl": 3598, "dtns": 3599, "hrbrt": 3600, "mstrdm": 3601, "rstrtn": 3602, "ww": 3603, "lmts": 3604, "rmnc": 3605, "dscssn": 3606, "crdts": 3607, "prcsss": 3608, "fnrl": 3609, "hrld": 3610, "tdr": 3611, "rrngmnt": 3612, "scntsts": 3613, "ybrw": 3614, "phts": 3615, "prtr": 3616, "trsm": 3617, "kps": 3618, "rvl": 3619, "rblt": 3620, "ndct": 3621, "stks": 3622, "cncntrtn": 3623, "rppd": 3624, "cmmnt": 3625, "xtnct": 3626, "mtnl": 3627, "ncrgd": 3628, "sspndd": 3629, "smlld": 3630, "hlfwy": 3631, "drmtc": 3632, "ntrntnlly": 3633, "rnnrs": 3634, "tb": 3635, "prfrrd": 3636, "trt": 3637, "nrlld": 3638, "chckn": 3639, "rndd": 3640, "rbrts": 3641, "prsnr": 3642, "fbrc": 3643, "cnsdrbl": 3644, "mrtl": 3645, "snstn": 3646, "hnnh": 3647, "jrslm": 3648, "fcss": 3649, "wrkr": 3650, "yll": 3651, "cppr": 3652, "nfrstrctr": 3653, "bm": 3654, "nbrsk": 3655, "vrybdy": 3656, "brcln": 3657, "mrbl": 3658, "grtfl": 3659, "dmlshd": 3660, "tgrs": 3661, "flrnc": 3662, "vlt": 3663, "rlx": 3664, "drby": 3665, "sltd": 3666, "mnthly": 3667, "csts": 3668, "xsts": 3669, "dffrncs": 3670, "lngs": 3671, "scttrd": 3672, "rjctd": 3673, "xplntn": 3674, "ctzn": 3675, "www": 3676, "tmtc": 3677, "rltnshps": 3678, "dprtr": 3679, "kny": 3680, "rrv": 3681, "rnn": 3682, "rngrs": 3683, "cmmns": 3684, "dcsns": 3685, "dscvr": 3686, "cmpltng": 3687, "whrs": 3688, "hrrd": 3689, "sbsttt": 3690, "cllpsd": 3691, "flmd": 3692, "thrftr": 3693, "yl": 3694, "mgg": 3695, "hstrclly": 3696, "pprnt": 3697, "rrst": 3698, "sg": 3699, "cchs": 3700, "dcrtd": 3701, "clndr": 3702, "blgrn": 3703, "ppls": 3704, "jry": 3705, "flppd": 3706, "grppd": 3707, "jrnlsm": 3708, "mdfd": 3709, "crcls": 3710, "bsmnt": 3711, "prdcrs": 3712, "stvn": 3713, "mps": 3714, "bxng": 3715, "grmmr": 3716, "bgs": 3717, "cnvnc": 3718, "phtgrphs": 3719, "jnnfr": 3720, "rsrvr": 3721, "rtl": 3722, "cvrg": 3723, "pssssn": 3724, "prdcs": 3725, "crdnl": 3726, "hnc": 3727, "lbw": 3728, "clrng": 3729, "lftng": 3730, "bckwrd": 3731, "lrm": 3732, "cndctr": 3733, "hrrbl": 3734, "nphw": 3735, "wdr": 3736, "mrgr": 3737, "klmtrs": 3738, "dctrs": 3739, "crvd": 3740, "vln": 3741, "rdc": 3742, "sttlmnts": 3743, "flwng": 3744, "drn": 3745, "ntrprs": 3746, "prvncs": 3747, "dlvry": 3748, "rchlgcl": 3749, "cg": 3750, "shltr": 3751, "hstryn": 3752, "xcptn": 3753, "rngs": 3754, "tchnlgs": 3755, "cbs": 3756, "ssm": 3757, "rcpnt": 3758, "crbn": 3759, "rnch": 3760, "cchd": 3761, "cllctv": 3762, "grgry": 3763, "prctcs": 3764, "rvng": 3765, "vrss": 3766, "jmpng": 3767, "mbssy": 3768, "strtld": 3769, "cncnnt": 3770, "chncllr": 3771, "srr": 3772, "lctrr": 3773, "rshng": 3774, "shts": 3775, "pprct": 3776, "styls": 3777, "sttlrs": 3778, "hghts": 3779, "dpttn": 3780, "crv": 3781, "fghnstn": 3782, "dll": 3783, "clnt": 3784, "prctcl": 3785, "dvntrs": 3786, "pnch": 3787, "clst": 3788, "mnmm": 3789, "crsss": 3790, "hsd": 3791, "rcvrd": 3792, "crrn": 3793, "qlfctn": 3794, "rvn": 3795, "crtfd": 3796, "pprprt": 3797, "hbrw": 3798, "dnvr": 3799, "svng": 3800, "rqrmnts": 3801, "jnny": 3802, "srchd": 3803, "njyng": 3804, "ssst": 3805, "dctrt": 3806, "cdp": 3807, "fllwshp": 3808, "lclly": 3809, "prtcptn": 3810, "brllnt": 3811, "rgnsd": 3812, "ldg": 3813, "sthwstrn": 3814, "nsmbl": 3815, "tnr": 3816, "rgntd": 3817, "plts": 3818, "mnl": 3819, "qlfy": 3820, "vltn": 3821, "brptly": 3822, "rmndr": 3823, "fk": 3824, "bngl": 3825, "cnstttnl": 3826, "brns": 3827, "dscrptnth": 3828, "nvlvmnt": 3829, "trbs": 3830, "dvsry": 3831, "wlvs": 3832, "rgrt": 3833, "hnstly": 3834, "blnk": 3835, "wrsw": 3836, "bhlf": 3837, "ptchr": 3838, "dntd": 3839, "pnst": 3840, "chvmnt": 3841, "brngs": 3842, "mystrs": 3843, "clnts": 3844, "trdtnlly": 3845, "frstrtn": 3846, "nstnc": 3847, "pndng": 3848, "dsstr": 3849, "prcssn": 3850, "pryr": 3851, "brz": 3852, "nrthstrn": 3853, "nnngs": 3854, "sggsts": 3855, "prtcptng": 3856, "fstvls": 3857, "spclzd": 3858, "llstrtd": 3859, "dvtd": 3860, "cvln": 3861, "chnnls": 3862, "trnmnts": 3863, "mhmmd": 3864, "rv": 3865, "prsd": 3866, "crft": 3867, "stmbld": 3868, "plms": 3869, "wrnss": 3870, "trls": 3871, "brkly": 3872, "crnrs": 3873, "rqrs": 3874, "cprtn": 3875, "drctns": 3876, "rtng": 3877, "mnfctrd": 3878, "mrthn": 3879, "ptns": 3880, "dntfy": 3881, "lbrty": 3882, "mnk": 3883, "hk": 3884, "trnstn": 3885, "strss": 3886, "rrvng": 3887, "frz": 3888, "cntnts": 3889, "jssc": 3890, "wfl": 3891, "dmntd": 3892, "cntrbtng": 3893, "dsplyd": 3894, "gly": 3895, "grbbng": 3896, "flrs": 3897, "gnrng": 3898, "jffrsn": 3899, "pnfl": 3900, "ndcts": 3901, "hppnss": 3902, "ptrsbrg": 3903, "clth": 3904, "rymnd": 3905, "lssns": 3906, "crckd": 3907, "ftstps": 3908, "cngrgtn": 3909, "lswhr": 3910, "smnry": 3911, "dstntn": 3912, "ctchng": 3913, "cmpnnt": 3914, "brsbn": 3915, "prtl": 3916, "cllgt": 3917, "snstv": 3918, "sspct": 3919, "gncs": 3920, "fctrs": 3921, "nhrtd": 3922, "ssrd": 3923, "crrh": 3924, "spprts": 3925, "mthmtcl": 3926, "grgs": 3927, "nmtn": 3928, "ntrstt": 3929, "sgnfcntly": 3930, "fsts": 3931, "prpsl": 3932, "nrflk": 3933, "lz": 3934, "chrctrstcs": 3935, "gstr": 3936, "nspctr": 3937, "xhstd": 3938, "fltng": 3939, "jc": 3940, "crshd": 3941, "hrsh": 3942, "ncrsngly": 3943, "tltd": 3944, "fttd": 3945, "prds": 3946, "ctgrs": 3947, "tnms": 3948, "twrs": 3949, "rdnd": 3950, "cndct": 3951, "glncng": 3952, "drgns": 3953, "ldly": 3954, "txts": 3955, "nzym": 3956, "cb": 3957, "dwrds": 3958, "dtbs": 3959, "pstl": 3960, "hrts": 3961, "qrtrs": 3962, "trvr": 3963, "hlps": 3964, "hmlt": 3965, "vnc": 3966, "vtng": 3967, "rgrs": 3968, "pprtnts": 3969, "hllnd": 3970, "fnc": 3971, "dsprtly": 3972, "shllw": 3973, "prg": 3974, "mlclr": 3975, "drnks": 3976, "brdgs": 3977, "chckng": 3978, "nbc": 3979, "nrms": 3980, "lghtng": 3981, "pdr": 3982, "stnfrd": 3983, "dntcl": 3984, "cntrbtn": 3985, "wlth": 3986, "frgv": 3987, "ltrnt": 3988, "ndrgrdt": 3989, "tpcs": 3990, "wkwrd": 3991, "prncpls": 3992, "thlgy": 3993, "frqnt": 3994, "prtnd": 3995, "shrts": 3996, "xplsn": 3997, "wtnss": 3998, "whvr": 3999, "ntnt": 4000, "mbr": 4001, "prsnts": 4002, "tnth": 4003, "pvrty": 4004, "xrcs": 4005, "sgmnt": 4006, "trvlld": 4007, "crrr": 4008, "dtld": 4009, "frk": 4010, "ckng": 4011, "dwnstrs": 4012, "js": 4013, "ssstd": 4014, "trmblng": 4015, "llnss": 4016, "chrctrzd": 4017, "grtly": 4018, "rclld": 4019, "hlcptr": 4020, "knds": 4021, "cklnd": 4022, "mtrcycl": 4023, "lgsltn": 4024, "prstn": 4025, "fndrs": 4026, "phlppn": 4027, "bttrfly": 4028, "fnn": 4029, "tmsphr": 4030, "fcsng": 4031, "cnnctns": 4032, "tt": 4033, "hggd": 4034, "gthc": 4035, "dplmtc": 4036, "lrght": 4037, "tndr": 4038, "wdw": 4039, "skrt": 4040, "rbbng": 4041, "rlsng": 4042, "nvttn": 4043, "dclnd": 4044, "frtrss": 4045, "snlght": 4046, "qnn": 4047, "stsfd": 4048, "trvls": 4049, "ttmptng": 4050, "xhbtns": 4051, "xhbtd": 4052, "dsgntn": 4053, "trnsmssn": 4054, "mrtm": 4055, "gg": 4056, "drlng": 4057, "shrply": 4058, "pllw": 4059, "ssts": 4060, "jdgs": 4061, "nvsbl": 4062, "rcgnsd": 4063, "rfrrng": 4064, "vrmnt": 4065, "bxs": 4066, "jrsdctn": 4067, "glbrt": 4068, "prtryd": 4069, "ttw": 4070, "frstyl": 4071, "stnnd": 4072, "21st": 4073, "hshldr": 4074, "hllw": 4075, "bttls": 4076, "rtd": 4077, "cnclsn": 4078, "cnyn": 4079, "lttd": 4080, "nncy": 4081, "rngng": 4082, "cnnct": 4083, "rgnc": 4084, "ppnnt": 4085, "ntrlly": 4086, "dmcrt": 4087, "ccsnl": 4088, "ntrmdt": 4089, "shrtr": 4090, "pttrns": 4091, "hmr": 4092, "sllvn": 4093, "rdcls": 4094, "mprssv": 4095, "shh": 4096, "phrs": 4097, "lnr": 4098, "hrvy": 4099, "twl": 4100, "gstrpd": 4101, "sblngs": 4102, "pckg": 4103, "cmptrs": 4104, "thndr": 4105, "mcrsft": 4106, "sprnt": 4107, "tpt": 4108, "shn": 4109, "crz": 4110, "blgr": 4111, "bslt": 4112, "nwcstl": 4113, "pprchng": 4114, "glb": 4115, "cnstntly": 4116, "tnt": 4117, "slct": 4118, "lnrd": 4119, "rlm": 4120, "clt": 4121, "xtnt": 4122, "wdsprd": 4123, "dmnstrtr": 4124, "rnld": 4125, "svntn": 4126, "rnwnd": 4127, "pnds": 4128, "dsslvd": 4129, "prcs": 4130, "gtrs": 4131, "dprtmnts": 4132, "vlntrs": 4133, "slng": 4134, "dsmssd": 4135, "rstrnts": 4136, "blts": 4137, "tggd": 4138, "rblln": 4139, "dvct": 4140, "sxty": 4141, "vrtl": 4142, "shm": 4143, "ltmt": 4144, "dlwr": 4145, "gthr": 4146, "vnzl": 4147, "smltnsly": 4148, "mssnry": 4149, "cmprss": 4150, "gdby": 4151, "stk": 4152, "cntrvrsl": 4153, "cmmndng": 4154, "vnshd": 4155, "nsccssfl": 4156, "vrhd": 4157, "crtcsm": 4158, "rsdng": 4159, "wnds": 4160, "prtcpnts": 4161, "rvwd": 4162, "snss": 4163, "crrs": 4164, "vlnrbl": 4165, "wllngtn": 4166, "trrfd": 4167, "nmntns": 4168, "stckhlm": 4169, "cntrvrsy": 4170, "tns": 4171, "dnd": 4172, "cng": 4173, "ytb": 4174, "tg": 4175, "plyffs": 4176, "crms": 4177, "bddy": 4178, "hngr": 4179, "cmpld": 4180, "ttrbtd": 4181, "brndn": 4182, "brks": 4183, "trstn": 4184, "drps": 4185, "glwng": 4186, "shnng": 4187, "dllr": 4188, "dscssd": 4189, "vrtcl": 4190, "cllr": 4191, "dmcrcy": 4192, "hlthy": 4193, "msmnt": 4194, "wrshp": 4195, "lcmtv": 4196, "blf": 4197, "ltrcy": 4198, "pppd": 4199, "stblshng": 4200, "wrlds": 4201, "dvrs": 4202, "bxr": 4203, "rckt": 4204, "tttd": 4205, "pts": 4206, "spclst": 4207, "mrnd": 4208, "rpr": 4209, "hlly": 4210, "mssgs": 4211, "btn": 4212, "plntd": 4213, "stfn": 4214, "rln": 4215, "xclsvly": 4216, "flwrng": 4217, "nsn": 4218, "shngh": 4219, "rchtcts": 4220, "ppnnts": 4221, "spnnng": 4222, "physclly": 4223, "ssntl": 4224, "lctrncs": 4225, "flmgrphy": 4226, "trstd": 4227, "rnssnc": 4228, "rflctd": 4229, "hn": 4230, "wrts": 4231, "lwst": 4232, "spkrs": 4233, "mrcy": 4234, "slvs": 4235, "nvrthlss": 4236, "smtm": 4237, "nshvll": 4238, "phllps": 4239, "fdng": 4240, "bnntt": 4241, "dvsr": 4242, "pnjb": 4243, "prprng": 4244, "bnkng": 4245, "fstst": 4246, "rsgntn": 4247, "clmns": 4248, "rtrng": 4249, "mxtr": 4250, "tmtclly": 4251, "cck": 4252, "hssd": 4253, "pscpl": 4254, "lls": 4255, "cllct": 4256, "cmpstns": 4257, "thrpy": 4258, "cnncts": 4259, "dcln": 4260, "rlng": 4261, "crclr": 4262, "lvtd": 4263, "rprtng": 4264, "mnstrs": 4265, "chd": 4266, "tbrk": 4267, "rcmmndd": 4268, "ffctvly": 4269, "rsmd": 4270, "btt": 4271, "ntnsty": 4272, "prsnlly": 4273, "lcmtvs": 4274, "prspctv": 4275, "hnk": 4276, "pnlty": 4277, "clmng": 4278, "rtfcl": 4279, "srvvl": 4280, "dsrv": 4281, "hmbrg": 4282, "trrtrl": 4283, "snsd": 4284, "mxng": 4285, "lgc": 4286, "ldd": 4287, "whls": 4288, "mrt": 4289, "brnswck": 4290, "sntncd": 4291, "mgcl": 4292, "snctry": 4293, "hmmr": 4294, "sbfmly": 4295, "gvrnmnts": 4296, "snl": 4297, "mbrrssd": 4298, "rrngmnts": 4299, "xclsv": 4300, "prprtn": 4301, "xtnsvly": 4302, "prdcssr": 4303, "wllc": 4304, "glcr": 4305, "cns": 4306, "mgl": 4307, "hrzn": 4308, "rthqk": 4309, "cgrtt": 4310, "sltns": 4311, "hdqrtrd": 4312, "vtrn": 4313, "fthrs": 4314, "rvlng": 4315, "mmgrnts": 4316, "gntc": 4317, "rgrdlss": 4318, "rchv": 4319, "qns": 4320, "ynkd": 4321, "rrw": 4322, "sbstntl": 4323, "wtsn": 4324, "grphc": 4325, "glkpr": 4326, "nvlst": 4327, "nsprtn": 4328, "jhnn": 4329, "ttrctv": 4330, "nchr": 4331, "mldy": 4332, "rnst": 4333, "mthrs": 4334, "nvlvs": 4335, "hlt": 4336, "tppd": 4337, "rlzng": 4338, "sgnfcnc": 4339, "rmr": 4340, "prprly": 4341, "mprssn": 4342, "lrds": 4343, "hndfl": 4344, "dscndd": 4345, "ttrctn": 4346, "cncrnng": 4347, "srgn": 4348, "frghtnd": 4349, "lnly": 4350, "gnrtd": 4351, "pnshmnt": 4352, "rslvs": 4353, "sntg": 4354, "cmplctd": 4355, "cnsmr": 4356, "mchnsm": 4357, "thss": 4358, "ccssbl": 4359, "ghn": 4360, "mnlnd": 4361, "brv": 4362, "mntgmry": 4363, "nls": 4364, "prctcd": 4365, "wrp": 4366, "mlss": 4367, "jdcl": 4368, "brrl": 4369, "rbs": 4370, "brhm": 4371, "strghtnd": 4372, "dh": 4373, "clbrtn": 4374, "crtfct": 4375, "strngs": 4376, "frwn": 4377, "trcd": 4378, "ncntr": 4379, "slm": 4380, "dsppntd": 4381, "pply": 4382, "cqstn": 4383, "ddly": 4384, "xmntn": 4385, "slwd": 4386, "qlly": 4387, "gspl": 4388, "whsprs": 4389, "tmpls": 4390, "nrv": 4391, "hrpr": 4392, "cnsltnt": 4393, "shffld": 4394, "gzd": 4395, "cllbrtd": 4396, "xprmnt": 4397, "lssr": 4398, "grrtt": 4399, "mntr": 4400, "dsbndd": 4401, "cntd": 4402, "mthdst": 4403, "chll": 4404, "mnc": 4405, "dmp": 4406, "xtndng": 4407, "dsl": 4408, "plyff": 4409, "clntn": 4410, "sprdng": 4411, "wlfr": 4412, "trtr": 4413, "sktng": 4414, "hlng": 4415, "tss": 4416, "cmprhnsv": 4417, "shks": 4418, "snrtd": 4419, "dlct": 4420, "chstr": 4421, "ntrvws": 4422, "glry": 4423, "xtnds": 4424, "hthr": 4425, "lrv": 4426, "chmbrs": 4427, "dstnctv": 4428, "rgltns": 4429, "xygn": 4430, "nxpctd": 4431, "ssx": 4432, "lbrtn": 4433, "mnrty": 4434, "crsd": 4435, "glr": 4436, "plz": 4437, "nttd": 4438, "tpc": 4439, "nfrcmnt": 4440, "mnds": 4441, "tnd": 4442, "grf": 4443, "jls": 4444, "bsrvtn": 4445, "bnfts": 4446, "smfnls": 4447, "pssssd": 4448, "gdd": 4449, "drd": 4450, "prtctng": 4451, "cndy": 4452, "rbb": 4453, "cnfdnt": 4454, "pry": 4455, "pstr": 4456, "rbt": 4457, "crrg": 4458, "blvs": 4459, "cvc": 4460, "mlly": 4461, "http": 4462, "rsrchrs": 4463, "lndmrk": 4464, "thrtnng": 4465, "hmtwn": 4466, "nstrctns": 4467, "vsts": 4468, "dsss": 4469, "mmb": 4470, "dlvr": 4471, "nglcn": 4472, "hghs": 4473, "frng": 4474, "prght": 4475, "rmmbrng": 4476, "frdrch": 4477, "gvnn": 4478, "srvnts": 4479, "rltn": 4480, "snp": 4481, "rqstd": 4482, "cllps": 4483, "nghbrng": 4484, "rcvry": 4485, "gym": 4486, "ntrs": 4487, "mply": 4488, "prntng": 4489, "msq": 4490, "cmmncd": 4491, "tmbr": 4492, "sgntr": 4493, "fg": 4494, "wrkshp": 4495, "rstr": 4496, "nrsng": 4497, "cttg": 4498, "rdcl": 4499, "cnclld": 4500, "clnng": 4501, "gnrtns": 4502, "cncntrtd": 4503, "chrry": 4504, "csl": 4505, "xpldd": 4506, "swllw": 4507, "drkr": 4508, "sttlng": 4509, "kthrn": 4510, "dmnstrd": 4511, "dvrc": 4512, "vwd": 4513, "rsst": 4514, "hntrs": 4515, "lgcy": 4516, "pckts": 4517, "brws": 4518, "pnm": 4519, "crlng": 4520, "rsrc": 4521, "shftng": 4522, "trbt": 4523, "dmnnt": 4524, "cmrs": 4525, "rsrvs": 4526, "jngl": 4527, "cpnhgn": 4528, "blvrd": 4529, "blckd": 4530, "trdtns": 4531, "trsr": 4532, "mlwk": 4533, "cntrls": 4534, "rk": 4535, "spy": 4536, "prth": 4537, "mmbld": 4538, "prmtng": 4539, "prcntg": 4540, "ppltns": 4541, "snshn": 4542, "cstm": 4543, "dplmt": 4544, "smrst": 4545, "gnng": 4546, "vldmr": 4547, "syr": 4548, "rcrtd": 4549, "vlvd": 4550, "prsrv": 4551, "lgbl": 4552, "tlks": 4553, "dprtd": 4554, "cngrssnl": 4555, "nstrctr": 4556, "tmb": 4557, "ntrctc": 4558, "bssst": 4559, "dtrl": 4560, "rtrt": 4561, "ssgnmnt": 4562, "bndng": 4563, "mssl": 4564, "rfrncs": 4565, "rcvr": 4566, "strms": 4567, "lbby": 4568, "nggmnt": 4569, "cmmntd": 4570, "frmwrk": 4571, "msrd": 4572, "xcllnc": 4573, "prstgs": 4574, "sngrs": 4575, "ncrdbl": 4576, "rtwrk": 4577, "crpt": 4578, "rcll": 4579, "sql": 4580, "nwtn": 4581, "clws": 4582, "crsty": 4583, "prnctn": 4584, "grnnng": 4585, "mlclm": 4586, "gvrnng": 4587, "cmpgns": 4588, "sccssn": 4589, "hldn": 4590, "nhbtd": 4591, "lbnn": 4592, "gssd": 4593, "jmc": 4594, "frnz": 4595, "rflctn": 4596, "hvnt": 4597, "sqz": 4598, "gstrd": 4599, "cstmr": 4600, "dplm": 4601, "cylndr": 4602, "nflncs": 4603, "prlmnry": 4604, "mrgng": 4605, "cnvctd": 4606, "spks": 4607, "cyclng": 4608, "lghs": 4609, "mnscrpt": 4610, "wrtngs": 4611, "brdng": 4612, "ggl": 4613, "flghts": 4614, "drvwy": 4615, "rchvs": 4616, "bryn": 4617, "dffclty": 4618, "kckng": 4619, "psts": 4620, "grsp": 4621, "ntllctl": 4622, "tstd": 4623, "grgn": 4624, "dggng": 4625, "cnscsnss": 4626, "xclmd": 4627, "mnstrm": 4628, "dpt": 4629, "gln": 4630, "vrnt": 4631, "fghtrs": 4632, "ntrprnr": 4633, "csy": 4634, "hrdwr": 4635, "bsrvtry": 4636, "drhm": 4637, "nghtmr": 4638, "ssktchwn": 4639, "xplr": 4640, "grmmy": 4641, "sbh": 4642, "ndrws": 4643, "sssts": 4644, "rntd": 4645, "sbspcs": 4646, "hrrcn": 4647, "slndr": 4648, "rgm": 4649, "swft": 4650, "mkr": 4651, "wrstlr": 4652, "tps": 4653, "srrndr": 4654, "scls": 4655, "nstrctn": 4656, "rcrtn": 4657, "fflt": 4658, "mbrc": 4659, "rstrctd": 4660, "xpnd": 4661, "jrnls": 4662, "clmbs": 4663, "sssx": 4664, "bddhst": 4665, "glxy": 4666, "prvtly": 4667, "mgns": 4668, "bthrd": 4669, "dsy": 4670, "ngng": 4671, "prsrvtn": 4672, "lncshr": 4673, "rhd": 4674, "hndld": 4675, "smlrly": 4676, "strkd": 4677, "wlhlm": 4678, "cnvntnl": 4679, "rlls": 4680, "wshng": 4681, "xplns": 4682, "strkng": 4683, "mrl": 4684, "shly": 4685, "nswrng": 4686, "dstnctn": 4687, "byzntn": 4688, "frght": 4689, "qrtt": 4690, "rbcc": 4691, "ygslv": 4692, "wngspn": 4693, "phlsphr": 4694, "frsr": 4695, "srvr": 4696, "3d": 4697, "lwn": 4698, "rppr": 4699, "llgd": 4700, "clbrt": 4701, "lpn": 4702, "prsntr": 4703, "pblcly": 4704, "ndnsn": 4705, "nybdy": 4706, "scrs": 4707, "cnfdrt": 4708, "cntrd": 4709, "vnyl": 4710, "frshmn": 4711, "sxphn": 4712, "grffn": 4713, "thlgcl": 4714, "tngr": 4715, "kmr": 4716, "nvntd": 4717, "ncknmd": 4718, "lrt": 4719, "vyg": 4720, "xl": 4721, "splld": 4722, "dscndnts": 4723, "ggrphc": 4724, "prnncd": 4725, "swm": 4726, "frs": 4727, "symptms": 4728, "prfr": 4729, "brrr": 4730, "blshd": 4731, "prfssnls": 4732, "nmbrd": 4733, "rspctv": 4734, "crrptn": 4735, "dggr": 4736, "lgndry": 4737, "bsrbd": 4738, "bly": 4739, "dsppr": 4740, "rpt": 4741, "hsptls": 4742, "mrshl": 4743, "brssls": 4744, "dny": 4745, "prgrmms": 4746, "hldr": 4747, "trld": 4748, "rbbr": 4749, "cmdn": 4750, "dmnds": 4751, "mrsh": 4752, "prcdr": 4753, "chvmnts": 4754, "vtrs": 4755, "sbrbs": 4756, "cltc": 4757, "fngs": 4758, "nddng": 4759, "ttckng": 4760, "bwd": 4761, "knny": 4762, "mntb": 4763, "shkspr": 4764, "dsrvd": 4765, "pttd": 4766, "vrbl": 4767, "sppld": 4768, "fb": 4769, "rprtdly": 4770, "pdtd": 4771, "cstms": 4772, "mrcl": 4773, "nlstd": 4774, "gsp": 4775, "clstr": 4776, "mrvl": 4777, "frnnd": 4778, "ftrwrd": 4779, "spprtrs": 4780, "wrhs": 4781, "lmstn": 4782, "nnvtn": 4783, "twst": 4784, "tmprrly": 4785, "rcvs": 4786, "slppng": 4787, "pltnm": 4788, "knckng": 4789, "mprsnd": 4790, "thyd": 4791, "mplmnttn": 4792, "cmprsn": 4793, "sny": 4794, "flx": 4795, "sffcnt": 4796, "plmr": 4797, "lsl": 4798, "ssssmnt": 4799, "prdmnntly": 4800, "prtctv": 4801, "dncd": 4802, "xtnd": 4803, "brdly": 4804, "mgntn": 4805, "hnrd": 4806, "hnn": 4807, "sspcs": 4808, "sttnd": 4809, "lynn": 4810, "bwlng": 4811, "trnsfrmd": 4812, "nvstgt": 4813, "dfndd": 4814, "nntnth": 4815, "chp": 4816, "fshr": 4817, "wckd": 4818, "sffr": 4819, "frstrtd": 4820, "bndd": 4821, "rbl": 4822, "trggr": 4823, "byng": 4824, "gdnc": 4825, "rgrd": 4826, "htls": 4827, "chncs": 4828, "scrw": 4829, "ntrfc": 4830, "stsfctn": 4831, "hndbll": 4832, "sbll": 4833, "bttng": 4834, "sbrbn": 4835, "pzz": 4836, "scrfc": 4837, "crrspndng": 4838, "pymnt": 4839, "trvllng": 4840, "prfssn": 4841, "thtrcl": 4842, "ltly": 4843, "xctn": 4844, "prtcl": 4845, "wshs": 4846, "kddng": 4847, "prmnntly": 4848, "tckr": 4849, "cnvrsn": 4850, "gntlmn": 4851, "mprvmnt": 4852, "mgntc": 4853, "dscrbng": 4854, "msd": 4855, "lghths": 4856, "qntm": 4857, "chllngd": 4858, "syndrm": 4859, "hmnty": 4860, "mphss": 4861, "dstrctd": 4862, "ttndnc": 4863, "bcks": 4864, "lmbs": 4865, "shttrd": 4866, "xprmnts": 4867, "wrnt": 4868, "hpflly": 4869, "qst": 4870, "slmn": 4871, "wgn": 4872, "nrrtv": 4873, "wdnsdy": 4874, "brss": 4875, "chllngs": 4876, "mr\u00ed": 4877, "crwdd": 4878, "xpsr": 4879, "bjctv": 4880, "cnscs": 4881, "prfrmr": 4882, "dsh": 4883, "mrdth": 4884, "mstrss": 4885, "ndctng": 4886, "trvs": 4887, "smpls": 4888, "crtyrd": 4889, "sgnls": 4890, "lnc": 4891, "prtstnt": 4892, "nmly": 4893, "ncrtn": 4894, "prvcy": 4895, "chrctrstc": 4896, "fntn": 4897, "xmnd": 4898, "rgnstns": 4899, "crsn": 4900, "hbt": 4901, "lmn": 4902, "ncnscs": 4903, "qstnd": 4904, "dvrcd": 4905, "scrms": 4906, "grvty": 4907, "cnsqncs": 4908, "rct": 4909, "ssntlly": 4910, "dns": 4911, "lcn": 4912, "mrth": 4913, "rfg": 4914, "nwprt": 4915, "pb": 4916, "prttyp": 4917, "mchll": 4918, "xvr": 4919, "dvlpr": 4920, "hvywght": 4921, "strctrl": 4922, "xtrr": 4923, "dmcrts": 4924, "ccmplshd": 4925, "cncntrt": 4926, "frg": 4927, "clns": 4928, "rgltn": 4929, "ncntrd": 4930, "hndlng": 4931, "stvns": 4932, "sfly": 4933, "crrbrn": 4934, "lxry": 4935, "jrk": 4936, "shrg": 4937, "clnc": 4938, "rsrchr": 4939, "slvn": 4940, "dtrmntn": 4941, "brdcsts": 4942, "fnctnl": 4943, "cnsst": 4944, "lyrs": 4945, "brdrd": 4946, "kybrd": 4947, "fngrtps": 4948, "rsrvd": 4949, "jv": 4950, "fcts": 4951, "dfnct": 4952, "ntrdc": 4953, "hrlng": 4954, "scnnd": 4955, "wstmnstr": 4956, "cllctng": 4957, "bnnd": 4958, "rtn": 4959, "drnd": 4960, "btty": 4961, "psn": 4962, "rws": 4963, "sbmttd": 4964, "scrnply": 4965, "lctr": 4966, "kngstn": 4967, "trsts": 4968, "cntrbry": 4969, "rrr": 4970, "bskt": 4971, "prcdd": 4972, "twntth": 4973, "rptdly": 4974, "tmbl": 4975, "dsppntmnt": 4976, "prtsts": 4977, "spcmns": 4978, "nscts": 4979, "klnd": 4980, "hrtng": 4981, "thrsdy": 4982, "ngrn": 4983, "dmncn": 4984, "trlr": 4985, "xtrrdnry": 4986, "xs": 4987, "rltvs": 4988, "chptrs": 4989, "smkng": 4990, "trgts": 4991, "clbrty": 4992, "hth": 4993, "rnwy": 4994, "dplyd": 4995, "ccrt": 4996, "dpndnt": 4997, "svnnh": 4998, "glgcl": 4999, "rlvnt": 5000, "lyl": 5001, "pblshrs": 5002, "dvs\u00f3n": 5003, "plnttn": 5004, "tsdy": 5005, "dlcs": 5006, "vrtns": 5007, "rnt": 5008, "tmprtrs": 5009, "tsng": 5010, "nnyd": 5011, "xplrtn": 5012, "cstng": 5013, "wldrnss": 5014, "ptrn": 5015, "slps": 5016, "dctnry": 5017, "knnth": 5018, "nstlltn": 5019, "pnchd": 5020, "dsn": 5021, "ssctns": 5022, "trrn": 5023, "dwnld": 5024, "vtrns": 5025, "qrtrbck": 5026, "rflct": 5027, "smngly": 5028, "wrsts": 5029, "grmns": 5030, "swthrt": 5031, "vdng": 5032, "ndlss": 5033, "crtczd": 5034, "brnds": 5035, "ntcptn": 5036, "pcfl": 5037, "strtchng": 5038, "prsdncy": 5039, "hndrsn": 5040, "whtny": 5041, "flmng": 5042, "lctrs": 5043, "snkng": 5044, "scrnwrtr": 5045, "chkd": 5046, "nthlgy": 5047, "hrdy": 5048, "shy": 5049, "pprchs": 5050, "mmgrtn": 5051, "vlvt": 5052, "jll": 5053, "lmp": 5054, "grrsn": 5055, "spct": 5056, "nrvsly": 5057, "shddrd": 5058, "dzns": 5059, "cmpct": 5060, "mtchng": 5061, "dcmntd": 5062, "plywrght": 5063, "dls": 5064, "prtrts": 5065, "pwll": 5066, "flpn": 5067, "psychlgcl": 5068, "mplmntd": 5069, "ntmt": 5070, "prsnttn": 5071, "wymng": 5072, "vlntn": 5073, "mtv": 5074, "blds": 5075, "rby": 5076, "ggrphcl": 5077, "drggng": 5078, "rrvs": 5079, "ssys": 5080, "dscpln": 5081, "crwld": 5082, "cdr": 5083, "ftg": 5084, "dpths": 5085, "crths": 5086, "brdfrd": 5087, "hlms": 5088, "prsbytrn": 5089, "ggrgt": 5090, "swrn": 5091, "ddrssd": 5092, "tbcc": 5093, "pcmng": 5094, "rmstrng": 5095, "mgrtd": 5096, "rdctn": 5097, "strcs": 5098, "shvrd": 5099, "rnkngs": 5100, "ccmmdt": 5101, "nmng": 5102, "gwn": 5103, "prsts": 5104, "ntrctv": 5105, "rvsd": 5106, "sdwlk": 5107, "xchngd": 5108, "prspct": 5109, "jdgmnt": 5110, "prfssnlly": 5111, "fncy": 5112, "sprntndnt": 5113, "scts": 5114, "sgmnts": 5115, "dclrtn": 5116, "chrstnty": 5117, "hldngs": 5118, "ntnlst": 5119, "wvng": 5120, "sscts": 5121, "nxty": 5122, "dshs": 5123, "bllts": 5124, "mllsk": 5125, "hmd": 5126, "cnsl": 5127, "spctrm": 5128, "mltn": 5129, "grtd": 5130, "crcs": 5131, "ndr\u00e9": 5132, "dffclts": 5133, "hpply": 5134, "nxs": 5135, "mmphs": 5136, "stndngs": 5137, "mrcc": 5138, "ntllgnt": 5139, "ndnpls": 5140, "grphcs": 5141, "mnrl": 5142, "mgntd": 5143, "dctrl": 5144, "brl": 5145, "dvng": 5146, "cmprsng": 5147, "lthnn": 5148, "mndmnt": 5149, "flckd": 5150, "tstmnt": 5151, "gfts": 5152, "nsty": 5153, "lvrs": 5154, "dscntnd": 5155, "blwng": 5156, "lfstyl": 5157, "lbrrs": 5158, "drctng": 5159, "ntrchng": 5160, "cnfrncs": 5161, "bbs": 5162, "svg": 5163, "nkl": 5164, "cnn": 5165, "grnts": 5166, "ccdntlly": 5167, "mllns": 5168, "vctrs": 5169, "rctr": 5170, "brgnl": 5171, "mjsty": 5172, "rfs": 5173, "ntrctn": 5174, "lssn": 5175, "rlctntly": 5176, "cntng": 5177, "syrn": 5178, "nst": 5179, "lyt": 5180, "strppd": 5181, "pwdr": 5182, "rchrdsn": 5183, "crrclm": 5184, "knlt": 5185, "rys": 5186, "dmndng": 5187, "gnv": 5188, "nvlp": 5189, "glc": 5190, "rfrmd": 5191, "npt": 5192, "klls": 5193, "ltrd": 5194, "lfh": 5195, "clry": 5196, "frnkfrt": 5197, "wrppng": 5198, "vwrs": 5199, "brdy": 5200, "thrllr": 5201, "lddr": 5202, "bnnr": 5203, "prmttd": 5204, "plstn": 5205, "sccd": 5206, "hrtbt": 5207, "ntrprttn": 5208, "stffd": 5209, "hstrns": 5210, "swmmr": 5211, "hwk": 5212, "drwngs": 5213, "rgstrtn": 5214, "rchr": 5215, "trnsltr": 5216, "rdtn": 5217, "shlf": 5218, "dmnsnl": 5219, "xhbt": 5220, "ntgrtn": 5221, "clgry": 5222, "wrfr": 5223, "fmnn": 5224, "fghts": 5225, "fndmntl": 5226, "ffcnt": 5227, "mzn": 5228, "lrnc": 5229, "brths": 5230, "bshps": 5231, "grm": 5232, "thrtcl": 5233, "ntty": 5234, "swngng": 5235, "lyn": 5236, "whppd": 5237, "strmng": 5238, "wtnssd": 5239, "xplrr": 5240, "crcltn": 5241, "tnks": 5242, "tghtr": 5243, "sbdvsn": 5244, "brshng": 5245, "chls": 5246, "ppltd": 5247, "rfld": 5248, "mtrx": 5249, "rchrds": 5250, "cnqst": 5251, "dmd": 5252, "scrr": 5253, "vdd": 5254, "frwngs": 5255, "gdn": 5256, "dsblf": 5257, "ntnwd": 5258, "cyprs": 5259, "swrds": 5260, "ncrg": 5261, "grld": 5262, "chcs": 5263, "smllst": 5264, "pty": 5265, "trnsfrmtn": 5266, "dntfctn": 5267, "cltrs": 5268, "mntlly": 5269, "blvng": 5270, "wzrd": 5271, "crwnd": 5272, "mtnd": 5273, "lgnds": 5274, "dmntn": 5275, "frdnnd": 5276, "cmmtts": 5277, "ttt": 5278, "vcnt": 5279, "tsks": 5280, "cds": 5281, "crmbycd": 5282, "glmps": 5283, "shny": 5284, "rbbt": 5285, "trckng": 5286, "rx": 5287, "hbtts": 5288, "srvvrs": 5289, "ndpndntly": 5290, "plgz": 5291, "mnfctrrs": 5292, "dpnds": 5293, "bckwrds": 5294, "tft": 5295, "prmptd": 5296, "grvl": 5297, "dlg": 5298, "crmsn": 5299, "mythlgy": 5300, "trcs": 5301, "vctn": 5302, "clk": 5303, "hntd": 5304, "lthn": 5305, "glncs": 5306, "crnwll": 5307, "dlyd": 5308, "sdnss": 5309, "rgng": 5310, "rlgtn": 5311, "cntrcts": 5312, "mslms": 5313, "cvs": 5314, "nscrptn": 5315, "rynlds": 5316, "nghbrs": 5317, "rspctd": 5318, "rltng": 5319, "cmmtmnt": 5320, "fcbk": 5321, "kpr": 5322, "cllctr": 5323, "mnlght": 5324, "hghwys": 5325, "sxn": 5326, "chrm": 5327, "rbls": 5328, "shrn": 5329, "yp": 5330, "dsplys": 5331, "mrcry": 5332, "blgrd": 5333, "msms": 5334, "ncrdtd": 5335, "ptnc": 5336, "snst": 5337, "hlmt": 5338, "crdnls": 5339, "vrtn": 5340, "dwrf": 5341, "nty": 5342, "hybrd": 5343, "vcnty": 5344, "llmsc": 5345, "ldwg": 5346, "ncnl": 5347, "rydr": 5348, "wsm": 5349, "trngl": 5350, "bry": 5351, "ntrm": 5352, "cnnn": 5353, "dlbrtly": 5354, "whrvr": 5355, "srprsngly": 5356, "mghty": 5357, "prtndng": 5358, "hstng": 5359, "glnn": 5360, "mmy": 5361, "cncpts": 5362, "flp": 5363, "grvs": 5364, "dcnt": 5365, "drws": 5366, "sndwch": 5367, "hrmny": 5368, "gbsn": 5369, "rnwd": 5370, "cnvnt": 5371, "wnstn": 5372, "bcycl": 5373, "msrng": 5374, "nrhp": 5375, "crvs": 5376, "npls": 5377, "cnsmd": 5378, "ctvly": 5379, "phtgrph": 5380, "pnny": 5381, "vtl": 5382, "mthmtcn": 5383, "crdff": 5384, "dmssn": 5385, "lsr": 5386, "lthrn": 5387, "trsrr": 5388, "ldrly": 5389, "sprhwk": 5390, "blcny": 5391, "ccntng": 5392, "srrndngs": 5393, "cnsrvtry": 5394, "rmvng": 5395, "cx": 5396, "crn": 5397, "shvr": 5398, "vcd": 5399, "rj": 5400, "bttns": 5401, "clmly": 5402, "ncls": 5403, "tmp": 5404, "rvls": 5405, "pkr": 5406, "nk": 5407, "sprtn": 5408, "mntnng": 5409, "xpndng": 5410, "bvr": 5411, "cndctng": 5412, "pgnt": 5413, "dsrdr": 5414, "xprts": 5415, "bmbng": 5416, "spdwy": 5417, "rctc": 5418, "fwr": 5419, "djstd": 5420, "tby": 5421, "clgn": 5422, "wnkd": 5423, "dds": 5424, "bsclly": 5425, "mngs": 5426, "scndl": 5427, "cckd": 5428, "blwn": 5429, "ntnlly": 5430, "cmpttrs": 5431, "blfst": 5432, "splls": 5433, "stnbl": 5434, "pks": 5435, "cncllr": 5436, "rcnstrctn": 5437, "trsh": 5438, "bckp": 5439, "nfctn": 5440, "ptcl": 5441, "rry": 5442, "rmrkbl": 5443, "dsrd": 5444, "hpkns": 5445, "nvgtn": 5446, "grwl": 5447, "swftly": 5448, "frthrmr": 5449, "mrchd": 5450, "symbls": 5451, "nlnd": 5452, "fllwrs": 5453, "ssmng": 5454, "ngttns": 5455, "chfs": 5456, "drthy": 5457, "rvsn": 5458, "mtchd": 5459, "cmmntry": 5460, "fltchr": 5461, "smnth": 5462, "dmnstrtd": 5463, "flks": 5464, "bdpst": 5465, "llsn": 5466, "dmnc": 5467, "dpctd": 5468, "ncrdbly": 5469, "rnbw": 5470, "cyclst": 5471, "lncstr": 5472, "bdl": 5473, "dstny": 5474, "prmrshp": 5475, "drwr": 5476, "gymnsm": 5477, "lbny": 5478, "cltchd": 5479, "lltt": 5480, "smpsn": 5481, "wndsr": 5482, "wdlnd": 5483, "vrcm": 5484, "spllng": 5485, "bngs": 5486, "svnty": 5487, "twstng": 5488, "slss": 5489, "jrnlsts": 5490, "gny": 5491, "vrwhlmng": 5492, "mntrng": 5493, "tckls": 5494, "gnn": 5495, "scry": 5496, "ghsts": 5497, "nnncmnt": 5498, "vgttn": 5499, "jx": 5500, "mdrt": 5501, "wsn": 5502, "wkng": 5503, "nmn": 5504, "ngg": 5505, "lwyrs": 5506, "sstnbl": 5507, "dchy": 5508, "nvstrs": 5509, "tmpr": 5510, "sdwys": 5511, "pltcns": 5512, "drvs": 5513, "bggd": 5514, "rsvlt": 5515, "msscr": 5516, "ssmbld": 5517, "brq": 5518, "flshng": 5519, "blg": 5520, "brghtn": 5521, "clnd": 5522, "qrtrfnls": 5523, "cmpsrs": 5524, "wsdm": 5525, "cknwldgd": 5526, "fnlst": 5527, "sbstnc": 5528, "rndy": 5529, "mld": 5530, "glvs": 5531, "mlb": 5532, "prmsng": 5533, "vrnts": 5534, "phllp": 5535, "mck": 5536, "mcdnld": 5537, "prfrmrs": 5538, "knckt": 5539, "kndr": 5540, "tddy": 5541, "mchncs": 5542, "zhng": 5543, "sspnsn": 5544, "spcmn": 5545, "krt": 5546, "dbbd": 5547, "bbrvtd": 5548, "nvlv": 5549, "np": 5550, "hrzgvn": 5551, "blssd": 5552, "nstrctd": 5553, "ndngrd": 5554, "tckl": 5555, "hb": 5556, "wncd": 5557, "jhns": 5558, "tnnls": 5559, "rfgs": 5560, "whp": 5561, "mtrnl": 5562, "rrd": 5563, "tllr": 5564, "frkng": 5565, "mrrsn": 5566, "prgnncy": 5567, "mltd": 5568, "chrmng": 5569, "cclmd": 5570, "lylty": 5571, "lptp": 5572, "cf": 5573, "cncvd": 5574, "plymth": 5575, "fssl": 5576, "mrdrs": 5577, "grndm": 5578, "cntrllng": 5579, "cslly": 5580, "sbtrpcl": 5581, "dsgst": 5582, "dscvrs": 5583, "cppd": 5584, "fntstc": 5585, "dvlpmnts": 5586, "prxmty": 5587, "lgnt": 5588, "plysttn": 5589, "sggstn": 5590, "cnvs": 5591, "hlfx": 5592, "rvrnd": 5593, "drssng": 5594, "sspcn": 5595, "trpd": 5596, "prcsly": 5597, "dynmc": 5598, "strnd": 5599, "chrstns": 5600, "yllng": 5601, "clssrm": 5602, "gb": 5603, "dscgrphy": 5604, "xlry": 5605, "blckng": 5606, "wrwlf": 5607, "trmpt": 5608, "stlng": 5609, "qtn": 5610, "cnsltng": 5611, "phlsphcl": 5612, "ffcncy": 5613, "sbl": 5614, "dckd": 5615, "clvn": 5616, "rwng": 5617, "slvdr": 5618, "bckpck": 5619, "svrly": 5620, "mttrss": 5621, "gvrnd": 5622, "dcdng": 5623, "sdn": 5624, "hlthcr": 5625, "srprsng": 5626, "dchss": 5627, "slvk": 5628, "pcks": 5629, "dwsn": 5630, "pnls": 5631, "bggng": 5632, "dvsd": 5633, "scrtly": 5634, "htrd": 5635, "nwrds": 5636, "nstnct": 5637, "vstr": 5638, "jrg": 5639, "hnrch": 5640, "sprvsn": 5641, "hys": 5642, "sckng": 5643, "xctng": 5644, "snls": 5645, "lxmbrg": 5646, "fnst": 5647, "mhrshtr": 5648, "cntnnt": 5649, "tnzn": 5650, "bsrvtns": 5651, "sprntrl": 5652, "mnmnts": 5653, "rmvl": 5654, "qstnng": 5655, "vrts": 5656, "crdntr": 5657, "dvrsty": 5658, "wrkshps": 5659, "crnll": 5660, "shnnn": 5661, "rllr": 5662, "cntss": 5663, "stnn": 5664, "brsts": 5665, "mkhl": 5666, "crng": 5667, "rbrtsn": 5668, "chln": 5669, "lbn": 5670, "cnmst": 5671, "krntk": 5672, "prtgnst": 5673, "cpyrght": 5674, "mrts": 5675, "jd": 5676, "fds": 5677, "pnnd": 5678, "whsprng": 5679, "gggld": 5680, "chsng": 5681, "wnnpg": 5682, "ctvtd": 5683, "ctznshp": 5684, "dylght": 5685, "xplnng": 5686, "dmgrphcss": 5687, "prvntd": 5688, "rsnbl": 5689, "ncdd": 5690, "swlln": 5691, "drtd": 5692, "vlcnc": 5693, "chrncl": 5694, "vrydy": 5695, "rctns": 5696, "rbbn": 5697, "nns": 5698, "tckts": 5699, "nntn": 5700, "clckd": 5701, "lbws": 5702, "swn": 5703, "prtstd": 5704, "chrlstn": 5705, "bblgrphy": 5706, "crpntr": 5707, "qty": 5708, "sprngfld": 5709, "hsttn": 5710, "ntrprss": 5711, "ndrwnt": 5712, "ssr": 5713, "dmb": 5714, "strct": 5715, "snny": 5716, "stnt": 5717, "cnfdrtn": 5718, "pths": 5719, "npln": 5720, "smmry": 5721, "bttd": 5722, "ffns": 5723, "scrmbld": 5724, "wknss": 5725, "thrm": 5726, "prng": 5727, "nnvtv": 5728, "rctnglr": 5729, "lmntn": 5730, "rsnl": 5731, "mnky": 5732, "srts": 5733, "scrtch": 5734, "srvllnc": 5735, "crrftr": 5736, "pndd": 5737, "ngrtd": 5738, "trrrst": 5739, "dstryr": 5740, "cw": 5741, "sbtl": 5742, "vrd": 5743, "thrzd": 5744, "xplld": 5745, "drknd": 5746, "stgd": 5747, "clsscs": 5748, "strngrs": 5749, "tsmn": 5750, "tchdwns": 5751, "srfcs": 5752, "lpt": 5753, "hctr": 5754, "sggstng": 5755, "vrtlly": 5756, "fldng": 5757, "snrld": 5758, "mcknz": 5759, "lpzg": 5760, "hghlnd": 5761, "bblcl": 5762, "tnnr": 5763, "sclgy": 5764, "ctchs": 5765, "zmbbw": 5766, "bllsht": 5767, "bbt": 5768, "sprn": 5769, "tlntd": 5770, "dtrs": 5771, "cwby": 5772, "ncrss": 5773, "mprvmnts": 5774, "jwlry": 5775, "lcks": 5776, "tlty": 5777, "bsnt": 5778, "smmrs": 5779, "prmss": 5780, "rfls": 5781, "htch": 5782, "ssy": 5783, "crrspndnt": 5784, "dppd": 5785, "cnfgrtn": 5786, "ggrssv": 5787, "mblnc": 5788, "cht": 5789, "hlplss": 5790, "thdr": 5791, "mnfctr": 5792, "thcs": 5793, "mscln": 5794, "chmpgn": 5795, "zch": 5796, "drsl": 5797, "prrty": 5798, "thrby": 5799, "trcy": 5800, "dlght": 5801, "dsty": 5802, "tlt": 5803, "dyl": 5804, "knckls": 5805, "km2": 5806, "tlg": 5807, "mgrtn": 5808, "crwfrd": 5809, "ncssrly": 5810, "cntrysd": 5811, "nvntr": 5812, "ncstrs": 5813, "nsh": 5814, "prtrs": 5815, "ndl": 5816, "rdcng": 5817, "ncklc": 5818, "trnsmttr": 5819, "rhn": 5820, "vtnms": 5821, "vfl": 5822, "shtr": 5823, "wtts": 5824, "crchd": 5825, "bctr": 5826, "cnrd": 5827, "frbs": 5828, "dlr": 5829, "flmmkr": 5830, "ttrly": 5831, "nbld": 5832, "cnsstnt": 5833, "nwfndlnd": 5834, "tmc": 5835, "sntrs": 5836, "vscnt": 5837, "trbld": 5838, "pmp": 5839, "trk": 5840, "ctlg": 5841, "dscssng": 5842, "flwd": 5843, "lcls": 5844, "rspnsblts": 5845, "clvr": 5846, "cclm": 5847, "rgsm": 5848, "hkd": 5849, "bcn": 5850, "rcrtnl": 5851, "cnsqntly": 5852, "stckng": 5853, "pstnd": 5854, "tys": 5855, "mdst": 5856, "fmnst": 5857, "nfctd": 5858, "bstrct": 5859, "tchnclly": 5860, "ccptng": 5861, "strlng": 5862, "ltgthr": 5863, "ccrdtd": 5864, "drmng": 5865, "sbwy": 5866, "hmm": 5867, "rcptr": 5868, "mrkng": 5869, "mnks": 5870, "wlt": 5871, "wp": 5872, "fj": 5873, "sddl": 5874, "mprss": 5875, "cy": 5876, "ptrc": 5877, "trnsprtd": 5878, "prsng": 5879, "prclmd": 5880, "strctly": 5881, "wrthy": 5882, "pssss": 5883, "rcrrng": 5884, "twlfth": 5885, "cltchng": 5886, "nlkly": 5887, "blfs": 5888, "htlr": 5889, "dcr": 5890, "lbls": 5891, "nclsd": 5892, "crshng": 5893, "frgmnts": 5894, "phnmnn": 5895, "strks": 5896, "mxwll": 5897, "scrlt": 5898, "nghbr": 5899, "rnvtd": 5900, "cnsmptn": 5901, "ftrmth": 5902, "btryd": 5903, "cnscrtd": 5904, "thp": 5905, "lnp": 5906, "rcnnssnc": 5907, "dmnsns": 5908, "cnstrct": 5909, "trsry": 5910, "plstnn": 5911, "zmb": 5912, "xplrng": 5913, "fttng": 5914, "slvry": 5915, "tnsd": 5916, "sstnd": 5917, "cnvrstns": 5918, "chrtd": 5919, "rtngs": 5920, "lgr": 5921, "dpsts": 5922, "vntl": 5923, "mprvng": 5924, "ntct": 5925, "vryng": 5926, "prvn": 5927, "sntchd": 5928, "ttrct": 5929, "crdnts": 5930, "mdnss": 5931, "rttn": 5932, "prtmnts": 5933, "frwnng": 5934, "strkr": 5935, "ccrrng": 5936, "spprtr": 5937, "prfrms": 5938, "mmrtl": 5939, "crwl": 5940, "pstlc": 5941, "crrll": 5942, "scrwd": 5943, "dfn": 5944, "gmtry": 5945, "fsn": 5946, "mpl": 5947, "brrcks": 5948, "lct": 5949, "nttnghm": 5950, "rscd": 5951, "prssn": 5952, "lsvll": 5953, "sfflk": 5954, "sxny": 5955, "mynmr": 5956, "llt": 5957, "lstr": 5958, "prshs": 5959, "mths": 5960, "rfrms": 5961, "wtchs": 5962, "frts": 5963, "fndtns": 5964, "mdgscr": 5965, "flgshp": 5966, "prtfl": 5967, "lckr": 5968, "mchnry": 5969, "frbddn": 5970, "lghtwght": 5971, "brdn": 5972, "brdcstr": 5973, "tmthy": 5974, "cnjnctn": 5975, "trmbld": 5976, "drtn": 5977, "wrlss": 5978, "mlylm": 5979, "hrzntl": 5980, "tchdwn": 5981, "bckgrndth": 5982, "bmbr": 5983, "wldly": 5984, "pltth": 5985, "brgdr": 5986, "rfsng": 5987, "wbb": 5988, "mlysn": 5989, "dltn": 5990, "bsrvr": 5991, "fssls": 5992, "cnsttncs": 5993, "mllnnm": 5994, "nppl": 5995, "rtfcts": 5996, "dgd": 5997, "grppng": 5998, "synnym": 5999, "drmd": 6000, "vcr": 6001, "prtcls": 6002, "pzzl": 6003, "krshn": 6004, "tbs": 6005, "stdly": 6006, "slmpd": 6007, "prvdnc": 6008, "rsds": 6009, "trgdy": 6010, "dnn": 6011, "prsdnts": 6012, "pblsh": 6013, "hndng": 6014, "dlgtn": 6015, "trrc": 6016, "rlztn": 6017, "mnnpls": 6018, "crrncy": 6019, "cnsprcy": 6020, "sprtly": 6021, "sprks": 6022, "mnrch": 6023, "xplrd": 6024, "lsly": 6025, "pblshs": 6026, "prmnnc": 6027, "csns": 6028, "stng": 6029, "frshwtr": 6030, "bnny": 6031, "gmply": 6032, "lphnt": 6033, "crmn": 6034, "phlpp": 6035, "rwrd": 6036, "brndd": 6037, "lrl": 6038, "nfnt": 6039, "grph": 6040, "bbbl": 6041, "chps": 6042, "fltd": 6043, "nvstgtns": 6044, "swmp": 6045, "pnly": 6046, "nnthlss": 6047, "nhncd": 6048, "cntrbt": 6049, "mrchnts": 6050, "tcm": 6051, "wsly": 6052, "jts": 6053, "prcvd": 6054, "rmrs": 6055, "rgnt": 6056, "kzkhstn": 6057, "rckd": 6058, "smdy": 6059, "cntcts": 6060, "sclptrs": 6061, "wllw": 6062, "dstryng": 6063, "wtrss": 6064, "ffctn": 6065, "dlgt": 6066, "grbs": 6067, "prmtnl": 6068, "ycht": 6069, "rggd": 6070, "vld": 6071, "wckts": 6072, "stffnd": 6073, "ltrl": 6074, "strngst": 6075, "mrcds": 6076, "sphmr": 6077, "prtsmth": 6078, "przs": 6079, "tlgrph": 6080, "cstdy": 6081, "swp": 6082, "physcst": 6083, "sprl": 6084, "dmnsn": 6085, "sln": 6086, "wtnsss": 6087, "cmpnds": 6088, "hydrgn": 6089, "cmnt": 6090, "zns": 6091, "swtr": 6092, "brwry": 6093, "stms": 6094, "gffry": 6095, "twnshps": 6096, "bnn": 6097, "lcstr": 6098, "dncrs": 6099, "xhbts": 6100, "ntrvntn": 6101, "pppr": 6102, "mrns": 6103, "rslv": 6104, "prvsns": 6105, "jnkns": 6106, "bdn": 6107, "pvln": 6108, "ghty": 6109, "smrk": 6110, "bncd": 6111, "jnn": 6112, "dscndnt": 6113, "ntrctns": 6114, "gvrnrs": 6115, "thrshld": 6116, "rhds": 6117, "sppsdly": 6118, "nrss": 6119, "wgnr": 6120, "ccptnc": 6121, "mdlst": 6122, "prvdr": 6123, "vrvw": 6124, "bnkr": 6125, "vrgd": 6126, "cntstnts": 6127, "jnks": 6128, "ntng": 6129, "ncstry": 6130, "tctcl": 6131, "tllst": 6132, "shv": 6133, "hmlnd": 6134, "msrbl": 6135, "trnl": 6136, "spry": 6137, "knx": 6138, "hlsnk": 6139, "phns": 6140, "jntly": 6141, "tngld": 6142, "gvrnmntl": 6143, "plshd": 6144, "trgtd": 6145, "sprk": 6146, "kdnppd": 6147, "hmnts": 6148, "bldwn": 6149, "shrly": 6150, "trmp": 6151, "ssssn": 6152, "grcry": 6153, "hghlnds": 6154, "scwld": 6155, "mdlng": 6156, "tchs": 6157, "llstrtns": 6158, "nrtn": 6159, "cmmnct": 6160, "crtclly": 6161, "rbnds": 6162, "dsrtd": 6163, "sndstn": 6164, "grmcd": 6165, "hrmn": 6166, "brm": 6167, "sklld": 6168, "spclzng": 6169, "sdny": 6170, "cprtv": 6171, "prmtv": 6172, "rnvtn": 6173, "psychc": 6174, "wthdrwn": 6175, "stbbrn": 6176, "bzz": 6177, "trmph": 6178, "plg": 6179, "lgrthm": 6180, "chllngng": 6181, "vsns": 6182, "rchlgy": 6183, "nfd": 6184, "pgrdd": 6185, "prly": 6186, "sdly": 6187, "dcsd": 6188, "ntntns": 6189, "kv": 6190, "bdmntn": 6191, "mnscrpts": 6192, "bndn": 6193, "dxn": 6194, "ccmpnyng": 6195, "thrml": 6196, "nffcl": 6197, "trlng": 6198, "sympthy": 6199, "rsty": 6200, "tmng": 6201, "stblty": 6202, "lstngll": 6203, "trndd": 6204, "gnrs": 6205, "crsr": 6206, "ssssntn": 6207, "dvlprs": 6208, "mcdn": 6209, "hrb": 6210, "cnsdrbly": 6211, "sktch": 6212, "mcky": 6213, "cmpnns": 6214, "rntl": 6215, "mnn": 6216, "cntrctd": 6217, "prsmbly": 6218, "rddsh": 6219, "nspctn": 6220, "cnsqnc": 6221, "ndrwr": 6222, "shphrd": 6223, "tlnts": 6224, "crst": 6225, "shttl": 6226, "prcy": 6227, "wpng": 6228, "mmgrnt": 6229, "prcdrs": 6230, "gvrnrt": 6231, "rvlt": 6232, "slck": 6233, "rndrd": 6234, "cqr": 6235, "swpng": 6236, "trtrd": 6237, "hmmnd": 6238, "bltc": 6239, "dstrbd": 6240, "prvntn": 6241, "dlgts": 6242, "pttr": 6243, "shlds": 6244, "brttny": 6245, "hrns": 6246, "chckl": 6247, "syrcs": 6248, "nsccssflly": 6249, "clmbn": 6250, "sphr": 6251, "gmng": 6252, "cmbrlnd": 6253, "llc": 6254, "cntnr": 6255, "ntrdcng": 6256, "rgy": 6257, "mmntn": 6258, "snskrt": 6259, "brghtly": 6260, "ntgrl": 6261, "jhnstn": 6262, "cncls": 6263, "glgy": 6264, "nscr": 6265, "nvstmnts": 6266, "cndl": 6267, "bdfrd": 6268, "rsrvtn": 6269, "lvnth": 6270, "db": 6271, "thmsn": 6272, "jffry": 6273, "clytn": 6274, "cnsdrtn": 6275, "rmrkd": 6276, "prcdngs": 6277, "stbbd": 6278, "cmmrclly": 6279, "spnsr": 6280, "vrnn": 6281, "vrlkng": 6282, "shds": 6283, "dffrntly": 6284, "srg": 6285, "cntstnt": 6286, "synthss": 6287, "bgclr": 6288, "vdnt": 6289, "mngrs": 6290, "strtr": 6291, "stcm": 6292, "ttr": 6293, "llgdly": 6294, "ftnss": 6295, "msclr": 6296, "thf": 6297, "rflctng": 6298, "wlcmd": 6299, "bnkrptcy": 6300, "shrk": 6301, "lgcl": 6302, "ptntlly": 6303, "frgl": 6304, "grnddghtr": 6305, "cmprsd": 6306, "shrb": 6307, "smlls": 6308, "clyd": 6309, "gvrnnc": 6310, "brtl": 6311, "nrllmnt": 6312, "bdg": 6313, "nvrnmnts": 6314, "lrns": 6315, "crcld": 6316, "mssngr": 6317, "mmbrn": 6318, "dsbld": 6319, "wl": 6320, "pbl": 6321, "nntnd": 6322, "mgnfcnt": 6323, "grs": 6324, "rlctnt": 6325, "prvsnl": 6326, "tndd": 6327, "llstrtr": 6328, "dbrs": 6329, "nnyms": 6330, "cnflnc": 6331, "pzzld": 6332, "prctcng": 6333, "cmmnds": 6334, "jhnns": 6335, "nlckd": 6336, "hyd": 6337, "ttlr": 6338, "grc\u00ed": 6339, "pcd": 6340, "nthssm": 6341, "sttc": 6342, "cvlztn": 6343, "trlgy": 6344, "chrtbl": 6345, "grndprnts": 6346, "bdmn": 6347, "frplc": 6348, "crc": 6349, "ddg": 6350, "cnflcts": 6351, "rchdcs": 6352, "pprctd": 6353, "dncs": 6354, "spnsrshp": 6355, "cpblts": 6356, "xhld": 6357, "dptn": 6358, "mnrs": 6359, "bmby": 6360, "pttry": 6361, "rgnzng": 6362, "smrkd": 6363, "dntl": 6364, "stcks": 6365, "nwmn": 6366, "stnc": 6367, "mtllc": 6368, "cnvy": 6369, "wndng": 6370, "tssng": 6371, "lngdn": 6372, "ptrrch": 6373, "flwn": 6374, "jsmn": 6375, "ncptn": 6376, "frmts": 6377, "dpts": 6378, "crtfctn": 6379, "prsntng": 6380, "blr": 6381, "pryd": 6382, "pyrmd": 6383, "xprssns": 6384, "strnmr": 6385, "bldr": 6386, "vrsty": 6387, "lglly": 6388, "slmmng": 6389, "dvncng": 6390, "ntnls": 6391, "pldd": 6392, "lfts": 6393, "cnsldtd": 6394, "dpctng": 6395, "cntnsly": 6396, "tvrn": 6397, "wrcstr": 6398, "vwng": 6399, "vlyn": 6400, "rphl": 6401, "sttmnts": 6402, "sqzng": 6403, "dtrm": 6404, "slrs": 6405, "px": 6406, "dnvn": 6407, "nvdd": 6408, "dpcts": 6409, "rcptnth": 6410, "scrtchd": 6411, "rfrndm": 6412, "whsky": 6413, "nvt": 6414, "cncllrs": 6415, "vgtbls": 6416, "jsf": 6417, "nclnd": 6418, "cmplnd": 6419, "strnmy": 6420, "knvs": 6421, "chnn": 6422, "ggrphyth": 6423, "bnsn": 6424, "zck": 6425, "cndls": 6426, "chrd": 6427, "srvyd": 6428, "ptrs": 6429, "pltclly": 6430, "flshlght": 6431, "ftl": 6432, "vlcty": 6433, "clndc": 6434, "lngths": 6435, "mstks": 6436, "pcnc": 6437, "lbrrn": 6438, "scrmnt": 6439, "chrtrd": 6440, "mrktd": 6441, "stys": 6442, "dmgrphcs": 6443, "myth": 6444, "prbblty": 6445, "rqrmnt": 6446, "clrnc": 6447, "25th": 6448, "mbddd": 6449, "rrws": 6450, "jdgng": 6451, "prtndd": 6452, "nstrls": 6453, "hmptn": 6454, "vrnght": 6455, "shldnt": 6456, "frzng": 6457, "dtsch": 6458, "crtns": 6459, "btncl": 6460, "prlfc": 6461, "nrrwly": 6462, "cclsstcl": 6463, "xmn": 6464, "hndwngs": 6465, "wghd": 6466, "gtml": 6467, "dcrtn": 6468, "thrghly": 6469, "bngkk": 6470, "rgnz": 6471, "nwr": 6472, "mrsn": 6473, "rqrng": 6474, "drnln": 6475, "ctsly": 6476, "xcss": 6477, "pprntc": 6478, "dstngsh": 6479, "clps": 6480, "rtrtd": 6481, "mdw": 6482, "cssdy": 6483, "trrstrl": 6484, "strnds": 6485, "tlcmmnctns": 6486, "xprsswy": 6487, "psdnym": 6488, "jvnl": 6489, "df": 6490, "ntnd": 6491, "rmrd": 6492, "mb": 6493, "smmnd": 6494, "wrck": 6495, "rrglr": 6496, "btnng": 6497, "rvvd": 6498, "cnsnt": 6499, "fnk": 6500, "gnrt": 6501, "cvlns": 6502, "sccdng": 6503, "bshs": 6504, "mnml": 6505, "mh": 6506, "lbns": 6507, "shtgn": 6508, "ndrs": 6509, "vvn": 6510, "szs": 6511, "brcd": 6512, "rfss": 6513, "lcnc": 6514, "prcdng": 6515, "tchnlgcl": 6516, "nhppy": 6517, "whlchr": 6518, "ncdnts": 6519, "chllngr": 6520, "plcmnt": 6521, "mrcr": 6522, "trch": 6523, "dctrn": 6524, "dssrttn": 6525, "hrmnn": 6526, "vnglcl": 6527, "bmbs": 6528, "wstd": 6529, "ndhr": 6530, "lngtm": 6531, "vrwhlmd": 6532, "tskrts": 6533, "ndrwtr": 6534, "htng": 6535, "nrdc": 6536, "ftzgrld": 6537, "rsdd": 6538, "mffld": 6539, "mprsnmnt": 6540, "chvng": 6541, "btsmn": 6542, "chpmn": 6543, "ptls": 6544, "lh": 6545, "flckrd": 6546, "prdctd": 6547, "clffs": 6548, "zp": 6549, "gssp": 6550, "fscl": 6551, "mdlnd": 6552, "rngr": 6553, "slfsh": 6554, "wbstr": 6555, "hghlghts": 6556, "hkng": 6557, "byrn": 6558, "blld": 6559, "vllgrs": 6560, "nlrgd": 6561, "shlls": 6562, "clcltd": 6563, "ssnc": 6564, "gymnstcs": 6565, "dynmcs": 6566, "lrnz": 6567, "dmpd": 6568, "jng": 6569, "drpd": 6570, "rhys": 6571, "bvrly": 6572, "cllm": 6573, "stggrd": 6574, "grspd": 6575, "mbrrssmnt": 6576, "cmmt": 6577, "txtl": 6578, "cnvctn": 6579, "bckt": 6580, "gspp": 6581, "dcrtv": 6582, "xm": 6583, "frmn": 6584, "sdd": 6585, "hstngs": 6586, "plgy": 6587, "nkls": 6588, "rmnnts": 6589, "jp": 6590, "crrctly": 6591, "rcn": 6592, "ljh": 6593, "mmn": 6594, "rckng": 6595, "ptrlm": 6596, "kngdms": 6597, "grbg": 6598, "dscrmntn": 6599, "prnnl": 6600, "hwn": 6601, "prlympcs": 6602, "mrdrr": 6603, "hrc": 6604, "strw": 6605, "lzy": 6606, "jdy": 6607, "sst": 6608, "snks": 6609, "rnfll": 6610, "scnnng": 6611, "shky": 6612, "snclr": 6613, "wrnkld": 6614, "vllys": 6615, "ntrvwd": 6616, "zgrb": 6617, "prvsn": 6618, "mrchng": 6619, "ptty": 6620, "dsgnrs": 6621, "drwnd": 6622, "hmlss": 6623, "hstl": 6624, "shvng": 6625, "tmmt": 6626, "lsbn": 6627, "crnvl": 6628, "sthmptn": 6629, "vlcn": 6630, "ppsng": 6631, "pshs": 6632, "rtr": 6633, "chrncls": 6634, "vktr": 6635, "drsdn": 6636, "gddmn": 6637, "rslvd": 6638, "rlbl": 6639, "crb": 6640, "brrwd": 6641, "spdrs": 6642, "dzzy": 6643, "prcd": 6644, "ngrly": 6645, "nvstd": 6646, "vgly": 6647, "pmrnn": 6648, "ckd": 6649, "btnst": 6650, "wstn": 6651, "skp": 6652, "ncmpsss": 6653, "svngs": 6654, "ltv": 6655, "nvntn": 6656, "hldys": 6657, "xtc": 6658, "cdy": 6659, "brgn": 6660, "pvmnt": 6661, "dvdsn": 6662, "lndsy": 6663, "chsd": 6664, "gtwy": 6665, "wrryng": 6666, "dspprng": 6667, "hdch": 6668, "rwspn": 6669, "ntcng": 6670, "tlscp": 6671, "pssblts": 6672, "sbmrgd": 6673, "bf": 6674, "strggls": 6675, "frgsn": 6676, "ptrsn": 6677, "ndrlyng": 6678, "qrry": 6679, "tctcs": 6680, "mlcls": 6681, "ntsxtrnl": 6682, "lndscps": 6683, "gllrs": 6684, "plr": 6685, "vv": 6686, "nvstgtng": 6687, "crrctd": 6688, "hrvst": 6689, "blnkng": 6690, "hvr": 6691, "smshd": 6692, "grndp": 6693, "stlkd": 6694, "ntntly": 6695, "shfts": 6696, "qtd": 6697, "dwllng": 6698, "cntrbtr": 6699, "ccl": 6700, "fshnd": 6701, "bndslg": 6702, "mkrs": 6703, "lctrn": 6704, "spclty": 6705, "krk": 6706, "drftng": 6707, "dwns": 6708, "rstrctns": 6709, "cc": 6710, "rpnd": 6711, "lynch": 6712, "gdnss": 6713, "prncs": 6714, "mntm": 6715, "spcfd": 6716, "nclsn": 6717, "grdnr": 6718, "bltn": 6719, "sylm": 6720, "ng": 6721, "rlrs": 6722, "prtv": 6723, "nthrplgy": 6724, "thnkflly": 6725, "llctd": 6726, "lctrt": 6727, "grtng": 6728, "nhld": 6729, "mdrs": 6730, "txnmy": 6731, "chshr": 6732, "\u00e9cl": 6733, "cmpts": 6734, "nmb": 6735, "cmpttr": 6736, "blrs": 6737, "dssltn": 6738, "cnstntnpl": 6739, "srgcl": 6740, "dlf": 6741, "scly": 6742, "cstr": 6743, "sndr": 6744, "prprtry": 6745, "dspr": 6746, "cnvrt": 6747, "shmd": 6748, "nblty": 6749, "rgltry": 6750, "brntt": 6751, "nghbrhds": 6752, "blnkts": 6753, "vlntly": 6754, "zmbs": 6755, "hydn": 6756, "sclr": 6757, "rtnl": 6758, "prcng": 6759, "brkthrgh": 6760, "physcns": 6761, "jlsy": 6762, "dmrd": 6763, "rrttd": 6764, "ntcptd": 6765, "hzl": 6766, "lnx": 6767, "dvlps": 6768, "spcfctns": 6769, "rpds": 6770, "pkng": 6771, "stmt": 6772, "ncrgng": 6773, "sccssv": 6774, "glwd": 6775, "dbld": 6776, "jrm": 6777, "crmns": 6778, "bndct": 6779, "mrryng": 6780, "jvr": 6781, "mzd": 6782, "nll": 6783, "hry": 6784, "shrmn": 6785, "byd": 6786, "pryng": 6787, "mndt": 6788, "hrrfd": 6789, "pntrs": 6790, "frwy": 6791, "rgnd": 6792, "jcky": 6793, "dytm": 6794, "rlzs": 6795, "msty": 6796, "yn": 6797, "ngs": 6798, "nncnc": 6799, "gll": 6800, "cwbys": 6801, "stmp": 6802, "cllbrtv": 6803, "lngrng": 6804, "dscssns": 6805, "nrwch": 6806, "cnsdrs": 6807, "ngrdnts": 6808, "rbrn": 6809, "scrnd": 6810, "mrty": 6811, "swyr": 6812, "brtt": 6813, "ndcd": 6814, "wtrfll": 6815, "slc": 6816, "glrng": 6817, "grgtwn": 6818, "trrrsm": 6819, "whstl": 6820, "grmbld": 6821, "mtthws": 6822, "nnty": 6823, "wntrs": 6824, "nqry": 6825, "phlhrmnc": 6826, "rtrv": 6827, "sqncs": 6828, "brkd": 6829, "lnkng": 6830, "lvstck": 6831, "nnsns": 6832, "strtgs": 6833, "rvrsd": 6834, "rdlf": 6835, "nytm": 6836, "fnshs": 6837, "nsc": 6838, "brt": 6839, "frtz": 6840, "snsng": 6841, "swtchng": 6842, "dscplns": 6843, "trnsfrm": 6844, "shrtnd": 6845, "vg": 6846, "twtchd": 6847, "jcksnvll": 6848, "krry": 6849, "ksv": 6850, "rndll": 6851, "nss": 6852, "knnd": 6853, "trbn": 6854, "srrw": 6855, "scks": 6856, "ctchr": 6857, "bcky": 6858, "mntngr": 6859, "pnckd": 6860, "snffd": 6861, "crrrly": 6862, "chrchll": 6863, "msrmnt": 6864, "rgmnts": 6865, "cslts": 6866, "snppng": 6867, "flynn": 6868, "xplsv": 6869, "sylv": 6870, "ghtnth": 6871, "lsd": 6872, "lqr": 6873, "ntbk": 6874, "nghtmrs": 6875, "prtnrd": 6876, "nsw": 6877, "cmpnstn": 6878, "cntrry": 6879, "blss": 6880, "bzrr": 6881, "chmst": 6882, "frntc": 6883, "gbl": 6884, "cmfrtng": 6885, "jyc": 6886, "lxs": 6887, "wnchstr": 6888, "dmmt": 6889, "hrly": 6890, "ndrd": 6891, "scpng": 6892, "phlnthrpst": 6893, "sknny": 6894, "mrvr": 6895, "nvstgtd": 6896, "xmnng": 6897, "ltvn": 6898, "sndrs": 6899, "mrld": 6900, "blws": 6901, "cnsrt": 6902, "msry": 6903, "pnns": 6904, "ntmy": 6905, "ccmpny": 6906, "fndngs": 6907, "lckng": 6908, "ntts": 6909, "nrd": 6910, "cmmrcls": 6911, "mstkn": 6912, "ssmptn": 6913, "mhz": 6914, "tngrs": 6915, "sqntd": 6916, "dtctd": 6917, "ynks": 6918, "wndy": 6919, "twttr": 6920, "flcn": 6921, "prsntly": 6922, "btls": 6923, "dsrdrs": 6924, "sfr": 6925, "mrkngs": 6926, "crkd": 6927, "rhblttn": 6928, "pttn": 6929, "vnss": 6930, "wytt": 6931, "wtrshd": 6932, "mbrll": 6933, "mddlsx": 6934, "plytchnc": 6935, "clspd": 6936, "lckly": 6937, "klkt": 6938, "wrrnt": 6939, "tppng": 6940, "jcbs": 6941, "pssnt": 6942, "whlly": 6943, "wllt": 6944, "mplyr": 6945, "dsblty": 6946, "sftbll": 6947, "phtgrphc": 6948, "sctrs": 6949, "lshs": 6950, "cnfrm": 6951, "ttrctns": 6952, "ccrdnc": 6953, "pdt": 6954, "wrdn": 6955, "ncntrs": 6956, "spccrft": 6957, "dgnsd": 6958, "cffn": 6959, "blsh": 6960, "ntwrp": 6961, "lbrtrs": 6962, "gzng": 6963, "mmntm": 6964, "vlntry": 6965, "rtc": 6966, "ndrtkn": 6967, "ylds": 6968, "bttrs": 6969, "svrgn": 6970, "grdd": 6971, "nthnl": 6972, "rchplg": 6973, "ntrprtd": 6974, "hrdnd": 6975, "pnrng": 6976, "trnsltns": 6977, "twlght": 6978, "rtrvd": 6979, "lyd": 6980, "bms": 6981, "pncl": 6982, "trtng": 6983, "ptd": 6984, "cptv": 6985, "xpcttns": 6986, "crws": 6987, "ctvsts": 6988, "ntrct": 6989, "gnrc": 6990, "hltd": 6991, "clp": 6992, "prgrssd": 6993, "pvd": 6994, "cnqrd": 6995, "whrld": 6996, "cntctd": 6997, "mdws": 6998, "pprctn": 6999, "ptrnl": 7000, "crwlng": 7001, "systmtc": 7002, "nsy": 7003, "tffny": 7004, "pnflly": 7005, "ntly": 7006, "crrspndnc": 7007, "jwl": 7008, "sthng": 7009, "vltg": 7010, "czchslvk": 7011, "cmbnng": 7012, "spcttrs": 7013, "lgbr": 7014, "cmpng": 7015, "mbrkd": 7016, "frntclly": 7017, "swrlng": 7018, "lsbth": 7019, "bchs": 7020, "strtchs": 7021, "shtn": 7022, "sttngs": 7023, "clgy": 7024, "dvls": 7025, "gmblng": 7026, "dvncs": 7027, "nstnctvly": 7028, "vrnc": 7029, "shrks": 7030, "xpns": 7031, "cnsrtm": 7032, "brthlss": 7033, "mndd": 7034, "prppd": 7035, "mdlnds": 7036, "dsprtn": 7037, "nrrtr": 7038, "drrn": 7039, "hydrbd": 7040, "prtbl": 7041, "mtrwy": 7042, "prcptn": 7043, "clctt": 7044, "pclr": 7045, "cmmnttr": 7046, "bsts": 7047, "cnsttnt": 7048, "bttrfls": 7049, "nnyng": 7050, "strnmcl": 7051, "rprs": 7052, "mpsd": 7053, "slcd": 7054, "dwnwrd": 7055, "gspng": 7056, "vlntrd": 7057, "gstv": 7058, "ccmmdtn": 7059, "lthl": 7060, "mmntrly": 7061, "slghtst": 7062, "bsl": 7063, "qrtrly": 7064, "lndry": 7065, "grttd": 7066, "trnglr": 7067, "csr": 7068, "mdwy": 7069, "slds": 7070, "tggng": 7071, "srvys": 7072, "jlt": 7073, "bjctvs": 7074, "frdg": 7075, "blmd": 7076, "hrtfrd": 7077, "pnrs": 7078, "hwks": 7079, "rsks": 7080, "rgnsms": 7081, "blncd": 7082, "chpln": 7083, "brkr": 7084, "dnls": 7085, "nrsry": 7086, "dtct": 7087, "ndctn": 7088, "dsgnng": 7089, "mchnsms": 7090, "syngg": 7091, "hnsn": 7092, "fs": 7093, "ncyclpd": 7094, "srvvr": 7095, "wdy": 7096, "sprvsr": 7097, "fcltt": 7098, "cnstbl": 7099, "slry": 7100, "mltng": 7101, "shkh": 7102, "shlvs": 7103, "pcng": 7104, "lwrng": 7105, "cdt": 7106, "trrs": 7107, "hssn": 7108, "kndll": 7109, "brrtt": 7110, "phntm": 7111, "nvstgtr": 7112, "trckd": 7113, "styld": 7114, "skltn": 7115, "prchr": 7116, "prsss": 7117, "rpls": 7118, "srn": 7119, "lpd": 7120, "prcsn": 7121, "rrng": 7122, "dstrss": 7123, "ggrphyccrdng": 7124, "glrs": 7125, "crmnls": 7126, "frstry": 7127, "stmps": 7128, "mrkr": 7129, "sbmssn": 7130, "rwn": 7131, "xcptnl": 7132, "jdth": 7133, "trdmrk": 7134, "prjctd": 7135, "pys": 7136, "prfssrs": 7137, "lcrss": 7138, "thmd": 7139, "rnttn": 7140, "gngr": 7141, "mvp": 7142, "grdts": 7143, "flklr": 7144, "ndrwrld": 7145, "frrm": 7146, "gggl": 7147, "stcs": 7148, "prmnt": 7149, "cnstlltn": 7150, "hvrng": 7151, "lnchng": 7152, "bttlfld": 7153, "hstt": 7154, "wrrs": 7155, "llly": 7156, "vcm": 7157, "trmntd": 7158, "vntrs": 7159, "nslly": 7160, "crltn": 7161, "dvccy": 7162, "dffr": 7163, "ndrtk": 7164, "lngng": 7165, "thrbbng": 7166, "ptchs": 7167, "scnr": 7168, "rcr": 7169, "mmmls": 7170, "cgntv": 7171, "\u0142\u00f3d\u017a": 7172, "cpt": 7173, "zzy": 7174, "rmndng": 7175, "fllr": 7176, "cmbn": 7177, "rvlry": 7178, "rn\u00e9": 7179, "lzrd": 7180, "rstlss": 7181, "bwls": 7182, "rmp": 7183, "dtchd": 7184, "ks": 7185, "schlrly": 7186, "hctrs": 7187, "lmb": 7188, "gbrltr": 7189, "xpld": 7190, "whtsh": 7191, "bthrng": 7192, "glcstr": 7193, "rnfrcd": 7194, "pnyms": 7195, "whlr": 7196, "smthly": 7197, "nthm": 7198, "rsstd": 7199, "ssh": 7200, "vnzln": 7201, "cltvtd": 7202, "lgbt": 7203, "cnbrr": 7204, "cnsnss": 7205, "jks": 7206, "cpld": 7207, "pmpng": 7208, "pttrsn": 7209, "nfrms": 7210, "sftnd": 7211, "frtntly": 7212, "tmtv": 7213, "rprtrs": 7214, "cngrssmn": 7215, "stttgrt": 7216, "ccssd": 7217, "crwds": 7218, "gjrt": 7219, "clbrts": 7220, "drssr": 7221, "strps": 7222, "nvtbl": 7223, "flgs": 7224, "myrck": 7225, "thft": 7226, "fltr": 7227, "mssnrs": 7228, "yg": 7229, "gftd": 7230, "srrndrd": 7231, "thrlld": 7232, "schmdt": 7233, "nsttts": 7234, "snrs": 7235, "tbgrphy": 7236, "hppd": 7237, "hrdcr": 7238, "spctclr": 7239, "wckt": 7240, "fthfl": 7241, "ccpy": 7242, "cknwldg": 7243, "xtd": 7244, "mw": 7245, "hlcst": 7246, "vkng": 7247, "cndmnd": 7248, "clgcl": 7249, "wnk": 7250, "wngd": 7251, "jkng": 7252, "hmntrn": 7253, "cnfssn": 7254, "brtndr": 7255, "jspr": 7256, "prcds": 7257, "crsp": 7258, "wry": 7259, "mprtd": 7260, "dsmbgtn": 7261, "dtctn": 7262, "flnchd": 7263, "l\u00f3pz": 7264, "ncstr": 7265, "kln": 7266, "fbr": 7267, "cmprtv": 7268, "brynt": 7269, "blff": 7270, "gnrtng": 7271, "hnrbl": 7272, "lntrn": 7273, "prpgnd": 7274, "clrfl": 7275, "trtl": 7276, "shpyrd": 7277, "dbts": 7278, "lmbrt": 7279, "crscnt": 7280, "fghn": 7281, "pthtc": 7282, "scrns": 7283, "rzr": 7284, "cntrllr": 7285, "brnnn": 7286, "rndlph": 7287, "rmk": 7288, "pnthrs": 7289, "tmptd": 7290, "msss": 7291, "mppng": 7292, "bsrv": 7293, "crtny": 7294, "kshmr": 7295, "dschrg": 7296, "bndl": 7297, "sbmrns": 7298, "mrqs": 7299, "nfrml": 7300, "clstrs": 7301, "qtr": 7302, "drwnng": 7303, "stnnng": 7304, "wx": 7305, "sppd": 7306, "pplyng": 7307, "drsss": 7308, "nttvs": 7309, "sktchs": 7310, "lfbrn": 7311, "bllrm": 7312, "nstncts": 7313, "lclts": 7314, "pltly": 7315, "clw": 7316, "fscntd": 7317, "ffs": 7318, "lphbt": 7319, "gnnr": 7320, "prhstrc": 7321, "crsly": 7322, "trnsctns": 7323, "vlv": 7324, "prsdd": 7325, "tyt": 7326, "cssndr": 7327, "gndh": 7328, "ddrsss": 7329, "dpst": 7330, "dffrntl": 7331, "lmbr": 7332, "trbls": 7333, "bnry": 7334, "fslg": 7335, "hghlghtd": 7336, "lnkn": 7337, "nrmndy": 7338, "mnnrs": 7339, "prmtr": 7340, "mrg": 7341, "lngd": 7342, "nwrk": 7343, "cckpt": 7344, "grrd": 7345, "tlts": 7346, "dvncmnt": 7347, "flyd": 7348, "lvngstn": 7349, "smng": 7350, "bncng": 7351, "plltn": 7352, "cnvncng": 7353, "lzz": 7354, "schlng": 7355, "txc": 7356, "mmr": 7357, "rpln": 7358, "qtc": 7359, "mddy": 7360, "mplmnt": 7361, "dsptd": 7362, "grnwch": 7363, "sq": 7364, "cntlss": 7365, "thmbs": 7366, "nxn": 7367, "lwlnd": 7368, "pyn": 7369, "crtsy": 7370, "chsss": 7371, "spds": 7372, "smltn": 7373, "slwr": 7374, "frstd": 7375, "ncrtnty": 7376, "thnkd": 7377, "cnsstntly": 7378, "nsct": 7379, "dgnss": 7380, "ptrns": 7381, "grnrd": 7382, "dstncs": 7383, "flttnd": 7384, "flnt": 7385, "prvntng": 7386, "ncmplt": 7387, "wrmng": 7388, "ddctn": 7389, "gssng": 7390, "nkk": 7391, "scrtd": 7392, "rcrt": 7393, "crprtns": 7394, "trbtrs": 7395, "cvrn": 7396, "lggd": 7397, "clmnst": 7398, "wngr": 7399, "dspprnc": 7400, "djnng": 7401, "ntgrty": 7402, "ccps": 7403, "bmbrs": 7404, "rps": 7405, "mndtry": 7406, "stcky": 7407, "wbsts": 7408, "gnrls": 7409, "sppr": 7410, "nnprft": 7411, "rspnss": 7412, "psychlgst": 7413, "llmntd": 7414, "trnsprnt": 7415, "tymlgyth": 7416, "bwlr": 7417, "qtns": 7418, "clllr": 7419, "hlpfl": 7420, "ffshr": 7421, "cnfnd": 7422, "mngl": 7423, "cdx": 7424, "mgnng": 7425, "cpblty": 7426, "ntq": 7427, "prpsls": 7428, "rflcts": 7429, "djst": 7430, "fvrbl": 7431, "psthmsly": 7432, "rqsts": 7433, "gnss": 7434, "wrwck": 7435, "nvtng": 7436, "blrtd": 7437, "tmtd": 7438, "dmnstrt": 7439, "xrcss": 7440, "trrbly": 7441, "grmnts": 7442, "mgng": 7443, "yld": 7444, "rrgnt": 7445, "pps": 7446, "dwnstrm": 7447, "kndrgrtn": 7448, "spns": 7449, "drctrt": 7450, "prdn": 7451, "hggns": 7452, "wbr": 7453, "cvntry": 7454, "dntns": 7455, "cks": 7456, "trct": 7457, "bckyrd": 7458, "sympthtc": 7459, "ssnl": 7460, "tbtn": 7461, "prmptly": 7462, "tck": 7463, "sghs": 7464, "btryl": 7465, "srf": 7466, "drbyshr": 7467, "dstrbng": 7468, "crlsl": 7469, "hrrt": 7470, "stny": 7471, "skppd": 7472, "lrrn": 7473, "cthlcs": 7474, "mdnn": 7475, "pstgrdt": 7476, "cmbd": 7477, "pymnts": 7478, "btmn": 7479, "crntn": 7480, "dstntns": 7481, "sxlly": 7482, "rppng": 7483, "sprvsd": 7484, "cnscnc": 7485, "cnsmrs": 7486, "rgnst": 7487, "dlvrng": 7488, "mnnng": 7489, "lkws": 7490, "cghd": 7491, "fcl": 7492, "slctr": 7493, "prpht": 7494, "dnts": 7495, "vngnc": 7496, "shrdn": 7497, "bslc": 7498, "wndrrs": 7499, "prtcpnt": 7500, "lgstcs": 7501, "lpld": 7502, "stmts": 7503, "dtchmnt": 7504, "thghtfl": 7505, "ccrcy": 7506, "sphstctd": 7507, "wknds": 7508, "crckng": 7509, "nlyst": 7510, "hstly": 7511, "cbc": 7512, "flmsh": 7513, "srrl": 7514, "xhstn": 7515, "lfns": 7516, "prsnlts": 7517, "lngstc": 7518, "nslt": 7519, "hz": 7520, "frctn": 7521, "llgtns": 7522, "bsq": 7523, "fschr": 7524, "dcn": 7525, "cnfssd": 7526, "sprklng": 7527, "nxpctdly": 7528, "blssng": 7529, "cmmssnrs": 7530, "rbts": 7531, "drll": 7532, "nvntry": 7533, "vrt": 7534, "lngrd": 7535, "brkdwn": 7536, "glwy": 7537, "prn": 7538, "prsctr": 7539, "nsght": 7540, "pthwy": 7541, "vtcn": 7542, "wthdrwl": 7543, "gntcs": 7544, "clppd": 7545, "vrbls": 7546, "ptts": 7547, "jnh": 7548, "cnsttt": 7549, "dnr": 7550, "dcrtns": 7551, "grns": 7552, "knts": 7553, "slvc": 7554, "cnpy": 7555, "dscvrng": 7556, "ntvs": 7557, "prchd": 7558, "blldgs": 7559, "lch": 7560, "bgrphyrly": 7561, "mzrt": 7562, "fscs": 7563, "mcdnn": 7564, "rrgtn": 7565, "nhrtnc": 7566, "lflng": 7567, "crcks": 7568, "shddr": 7569, "cnsrvtvs": 7570, "bgrphybrn": 7571, "pssprt": 7572, "msct": 7573, "ssgnmnts": 7574, "flttrd": 7575, "bnglr": 7576, "mnsrs": 7577, "phrmcy": 7578, "cntrctr": 7579, "bmw": 7580, "crpy": 7581, "shppd": 7582, "plngd": 7583, "nlg": 7584, "lbs": 7585, "trnsmttd": 7586, "bddhsm": 7587, "nstttnl": 7588, "chmcls": 7589, "hggng": 7590, "ccptbl": 7591, "qlfr": 7592, "frlnc": 7593, "shrm": 7594, "trsrs": 7595, "wtrl": 7596, "dlln": 7597, "frtrnty": 7598, "phrmctcl": 7599, "fyr": 7600, "bddh": 7601, "yllwsh": 7602, "brwns": 7603, "synthtc": 7604, "msrmnts": 7605, "lstngs": 7606, "frtfd": 7607, "wrmd": 7608, "cnstttd": 7609, "vctnl": 7610, "vvd": 7611, "brghtr": 7612, "sktr": 7613, "trnsfrrng": 7614, "ttc": 7615, "pdm": 7616, "pctrd": 7617, "pllws": 7618, "plsm": 7619, "cmmssns": 7620, "mssls": 7621, "pldng": 7622, "rwr": 7623, "nwdys": 7624, "cptnd": 7625, "cmplnts": 7626, "pblcty": 7627, "lyrc": 7628, "grgr": 7629, "snglsss": 7630, "mz": 7631, "mgstrt": 7632, "cmbns": 7633, "mtls": 7634, "prlympc": 7635, "prgy": 7636, "wrtm": 7637, "slsbry": 7638, "blnt": 7639, "vlnst": 7640, "flshs": 7641, "rgnld": 7642, "cllsn": 7643, "lgrn": 7644, "22nd": 7645, "mdwst": 7646, "symr": 7647, "ptt": 7648, "nvld": 7649, "sltry": 7650, "brcks": 7651, "slvnn": 7652, "rspc": 7653, "trr": 7654, "knlng": 7655, "chrgng": 7656, "brthrhd": 7657, "bgl": 7658, "pstrl": 7659, "ffndd": 7660, "fnctnng": 7661, "fng": 7662, "rdly": 7663, "mrrrs": 7664, "mhmd": 7665, "nnxd": 7666, "rsmbls": 7667, "24th": 7668, "thtrs": 7669, "bthny": 7670, "mcr": 7671, "clrnt": 7672, "frcly": 7673, "rcvrng": 7674, "pstrm": 7675, "drmtclly": 7676, "drst": 7677, "mdd": 7678, "cptrng": 7679, "thrghbrd": 7680, "hvrd": 7681, "wmbldn": 7682, "rsmblnc": 7683, "cltvtn": 7684, "kcks": 7685, "dffrs": 7686, "prvy": 7687, "shlby": 7688, "trbnl": 7689, "qlts": 7690, "mptnt": 7691, "smstr": 7692, "sxtnth": 7693, "mdly": 7694, "nplsnt": 7695, "smthd": 7696, "bndnt": 7697, "brthplc": 7698, "lngstcs": 7699, "vlr": 7700, "cmplctns": 7701, "mnrchy": 7702, "gdng": 7703, "ppntmnts": 7704, "hck": 7705, "glmng": 7706, "dsplcd": 7707, "blzng": 7708, "jmps": 7709, "xprncng": 7710, "prkns": 7711, "thrtnth": 7712, "nscrptns": 7713, "bhr": 7714, "flndrs": 7715, "tmsphrc": 7716, "tmmts": 7717, "rlgns": 7718, "trrfyng": 7719, "mbrcd": 7720, "ntnsv": 7721, "brkshr": 7722, "dlcts": 7723, "smmy": 7724, "crdntn": 7725, "nrlsd": 7726, "tblt": 7727, "lngthy": 7728, "ch\u00e2t": 7729, "yrly": 7730, "ndgd": 7731, "ntrfrnc": 7732, "pryrs": 7733, "cncld": 7734, "tmbld": 7735, "knb": 7736, "clmnt": 7737, "mbts": 7738, "xpstn": 7739, "bypss": 7740, "clbrtng": 7741, "shrgs": 7742, "vrsw": 7743, "plq": 7744, "pstrr": 7745, "ccdnts": 7746, "spclzs": 7747, "wrlrd": 7748, "nhnc": 7749, "fnncng": 7750, "slpy": 7751, "hncck": 7752, "lbld": 7753, "prtt": 7754, "vdntly": 7755, "flckr": 7756, "lrnt": 7757, "rsdncy": 7758, "cncdnc": 7759, "xpsng": 7760, "brnx": 7761, "plcmn": 7762, "blz": 7763, "spprssd": 7764, "mds": 7765, "cmmndrs": 7766, "mmnl": 7767, "clssrms": 7768, "skr": 7769, "chwd": 7770, "mprt": 7771, "lsh": 7772, "hnvr": 7773, "nnync": 7774, "mdctn": 7775, "cnstntn": 7776, "spplmnt": 7777, "cmpss": 7778, "cgrtts": 7779, "dsgs": 7780, "fntly": 7781, "prkwy": 7782, "cmpr": 7783, "mbrrssng": 7784, "rsmbl": 7785, "mdln": 7786, "cnvnnt": 7787, "bchrst": 7788, "sttt": 7789, "pprxmt": 7790, "jptr": 7791, "xcvtns": 7792, "lbt": 7793, "pllrs": 7794, "23rd": 7795, "clffrd": 7796, "phss": 7797, "lgtmt": 7798, "slvtn": 7799, "cnsss": 7800, "crystls": 7801, "ctln": 7802, "wlfgng": 7803, "hstg": 7804, "grndng": 7805, "clngng": 7806, "rmnds": 7807, "blckbrn": 7808, "vrl": 7809, "stsfy": 7810, "nvstr": 7811, "chndlr": 7812, "frghtnng": 7813, "trgc": 7814, "tl\u00e9tc": 7815, "nnmd": 7816, "dgnty": 7817, "mnrls": 7818, "dtntn": 7819, "svs": 7820, "rgntng": 7821, "schms": 7822, "sthrlnd": 7823, "sprkd": 7824, "rbbry": 7825, "cmmdr": 7826, "dytn": 7827, "crlyn": 7828, "trggrd": 7829, "hwkns": 7830, "fshrs": 7831, "zs": 7832, "rgs": 7833, "cnnnghm": 7834, "dcrs": 7835, "splttng": 7836, "nfrtnt": 7837, "stvnsn": 7838, "sspcts": 7839, "frwll": 7840, "spcfctn": 7841, "trffckng": 7842, "rrttn": 7843, "tymlgy": 7844, "ffctng": 7845, "btrc": 7846, "xcldng": 7847, "cmplxty": 7848, "thyll": 7849, "dlghtd": 7850, "nggng": 7851, "myrs": 7852, "wrwlvs": 7853, "prntr": 7854, "shftr": 7855, "pppy": 7856, "jwls": 7857, "slvd": 7858, "zrch": 7859, "rhythmc": 7860, "sghts": 7861, "tndncy": 7862, "cycln": 7863, "clbrtns": 7864, "dprssd": 7865, "nblmn": 7866, "fnlsts": 7867, "rrngr": 7868, "smlrts": 7869, "nnncr": 7870, "dcmnttn": 7871, "qng": 7872, "pckp": 7873, "clmpd": 7874, "pld": 7875, "hghlght": 7876, "vntg": 7877, "ptht": 7878, "mccrthy": 7879, "dspts": 7880, "brwng": 7881, "flxbl": 7882, "lmnm": 7883, "smmns": 7884, "dstrbtnths": 7885, "chrnc": 7886, "hypthss": 7887, "thrds": 7888, "hc": 7889, "drts": 7890, "tmd": 7891, "shkn": 7892, "bscr": 7893, "rckts": 7894, "krch": 7895, "pprwrk": 7896, "gnnly": 7897, "dhk": 7898, "ffltn": 7899, "jkrt": 7900, "rpblcns": 7901, "trf": 7902, "sntncs": 7903, "prfts": 7904, "nsds": 7905, "gnrtr": 7906, "dcrsd": 7907, "lnngrd": 7908, "xpnss": 7909, "lxngtn": 7910, "lgnmnt": 7911, "glcstrshr": 7912, "30th": 7913, "kwt": 7914, "dxtr": 7915, "hvns": 7916, "sctng": 7917, "jnsn": 7918, "pnytl": 7919, "ymn": 7920, "wltn": 7921, "mmgrtd": 7922, "cwrd": 7923, "prdtrs": 7924, "lhr": 7925, "cmptbl": 7926, "sznn": 7927, "cmpnt": 7928, "rpm": 7929, "grffth": 7930, "sngwrtng": 7931, "mntry": 7932, "chstnt": 7933, "thrll": 7934, "wvr": 7935, "dntfyng": 7936, "prvdrs": 7937, "flck": 7938, "mpls": 7939, "flts": 7940, "nsrtd": 7941, "chkng": 7942, "sthr": 7943, "pwrds": 7944, "cldn": 7945, "rddn": 7946, "rgncy": 7947, "rcrdr": 7948, "shwcs": 7949, "sbmt": 7950, "cllctvly": 7951, "swrld": 7952, "w\u00fcrttmbrg": 7953, "gnm": 7954, "rmbl": 7955, "rrrs": 7956, "rjnd": 7957, "rchstrl": 7958, "lfytt": 7959, "grndchldrn": 7960, "rmsy": 7961, "prprtns": 7962, "mprnt": 7963, "cnvntns": 7964, "nppsd": 7965, "stb": 7966, "mrvn": 7967, "mtnlly": 7968, "qntty": 7969, "prttn": 7970, "sbdvdd": 7971, "prvng": 7972, "bltd": 7973, "crfts": 7974, "thpn": 7975, "rbtl": 7976, "prfm": 7977, "rsdncs": 7978, "flvr": 7979, "lwsn": 7980, "thlgn": 7981, "cnfrmtn": 7982, "jggd": 7983, "lndmrks": 7984, "lbln": 7985, "brvs": 7986, "tbt": 7987, "prhbtd": 7988, "vltnry": 7989, "smckd": 7990, "cmplmnt": 7991, "nfmlr": 7992, "krk\u00f3w": 7993, "sphlt": 7994, "ktty": 7995, "drnkn": 7996, "tlbt": 7997, "bxtr": 7998, "rjsthn": 7999, "rgltd": 8000, "dscndng": 8001, "mssy": 8002, "rlngtn": 8003, "trmd": 8004, "rcmmndtn": 8005, "rdny": 8006, "bsnn": 8007, "rvwr": 8008, "glv": 8009, "brmd": 8010, "dcmmssnd": 8011, "rttrdm": 8012, "prfctn": 8013, "frgttng": 8014, "dpnd": 8015, "shvrng": 8016, "zk": 8017, "rcrtng": 8018, "cmpttnl": 8019, "jdgd": 8020, "wrstlrs": 8021, "frmtns": 8022, "dfnss": 8023, "blltn": 8024, "dmnn": 8025, "lnclnshr": 8026, "gztt": 8027, "hbts": 8028, "klln": 8029, "sghng": 8030, "cmpst": 8031, "cnfrnttn": 8032, "dcks": 8033, "bvrn": 8034, "dnglng": 8035, "kndnss": 8036, "trght": 8037, "prmtrs": 8038, "chwng": 8039, "grly": 8040, "ccmplsh": 8041, "rttld": 8042, "mrrgs": 8043, "ptrts": 8044, "dvtn": 8045, "cftr": 8046, "xplrs": 8047, "tstmny": 8048, "stckd": 8049, "kthln": 8050, "jbl": 8051, "rptng": 8052, "wkwrdly": 8053, "snctnd": 8054, "btchr": 8055, "vrly": 8056, "brbn": 8057, "vrtm": 8058, "btny": 8059, "trdrs": 8060, "gstn": 8061, "cmplnt": 8062, "rdrct": 8063, "trcng": 8064, "bckr": 8065, "cnns": 8066, "lcd": 8067, "clrgy": 8068, "scps": 8069, "gmm": 8070, "lby": 8071, "mdy": 8072, "ptc": 8073, "dmltn": 8074, "stphns": 8075, "jnnngs": 8076, "dvctd": 8077, "bmp": 8078, "frmhs": 8079, "dplymnt": 8080, "rdrng": 8081, "csstt": 8082, "strmd": 8083, "nblng": 8084, "rwrdd": 8085, "shttng": 8086, "rgnztnl": 8087, "dvr": 8088, "dpstd": 8089, "pppt": 8090, "strvng": 8091, "dshd": 8092, "crtnty": 8093, "ntnn": 8094, "slvtr": 8095, "prfnd": 8096, "cf\u00e9": 8097, "ccrdngly": 8098, "rfrgrtr": 8099, "brggs": 8100, "cycls": 8101, "ntrtnng": 8102, "ndls": 8103, "wllmsn": 8104, "lpz": 8105, "mstrng": 8106, "scrp": 8107, "sdm": 8108, "slky": 8109, "cmmtr": 8110, "hldrs": 8111, "tmln": 8112, "tskd": 8113, "rdrgz": 8114, "ddtns": 8115, "clrty": 8116, "ddrssng": 8117, "bgnnngs": 8118, "mf": 8119, "dvlpmntl": 8120, "chrstchrch": 8121, "p\u00e9rz": 8122, "blrsn": 8123, "dscrptns": 8124, "nnms": 8125, "rgnts": 8126, "crpng": 8127, "lnbckr": 8128, "ntwrkng": 8129, "kttn": 8130, "fxtr": 8131, "dsplcmnt": 8132, "ncmmn": 8133, "ntrrd": 8134, "tnds": 8135, "scwl": 8136, "cmpssn": 8137, "rhmn": 8138, "kdny": 8139, "wghng": 8140, "tdl": 8141, "m\u0101r": 8142, "cntrprt": 8143, "lmps": 8144, "gdlns": 8145, "pny": 8146, "prphcy": 8147, "psychtrc": 8148, "mlcl": 8149, "prdctv": 8150, "crrrs": 8151, "ndrsd": 8152, "ptntly": 8153, "fnch": 8154, "crclng": 8155, "tsss": 8156, "flppng": 8157, "lchlc": 8158, "nnst": 8159, "frrr": 8160, "swllwng": 8161, "gbrll": 8162, "mmns": 8163, "msvn": 8164, "hnsty": 8165, "plygrnd": 8166, "thnkfl": 8167, "tghtnng": 8168, "svntnth": 8169, "prfrnc": 8170, "cptns": 8171, "flthy": 8172, "dcmntrs": 8173, "chrk": 8174, "trnsctn": 8175, "hndrs": 8176, "hllwn": 8177, "nchrd": 8178, "dschrgd": 8179, "ryc": 8180, "kthy": 8181, "vctd": 8182, "cnfrntd": 8183, "cmbck": 8184, "rssd": 8185, "pnsn": 8186, "scrnng": 8187, "rspndng": 8188, "prcssr": 8189, "pssssns": 8190, "https": 8191, "dmrlty": 8192, "swtng": 8193, "brg": 8194, "dphn": 8195, "stryln": 8196, "hlcptrs": 8197, "ltrntvly": 8198, "slcn": 8199, "rwys": 8200, "kl": 8201, "pprv": 8202, "ptrtc": 8203, "mcrphn": 8204, "clsh": 8205, "synthszr": 8206, "sllm": 8207, "dspsl": 8208, "dscrdd": 8209, "ccpyng": 8210, "cntntn": 8211, "hvd": 8212, "brsd": 8213, "lnl": 8214, "ffsprng": 8215, "pmpd": 8216, "xcssv": 8217, "nwst": 8218, "flfll": 8219, "srvvs": 8220, "bxrs": 8221, "jnll": 8222, "grnlnd": 8223, "bsssd": 8224, "xbx": 8225, "snsr": 8226, "rcmmndtns": 8227, "tlly": 8228, "hdlbrg": 8229, "sgm": 8230, "ccrdttn": 8231, "sprs": 8232, "stbls": 8233, "mptntly": 8234, "kllrs": 8235, "pswch": 8236, "hpfl": 8237, "cdmcs": 8238, "nfnshd": 8239, "srvyr": 8240, "stffrdshr": 8241, "spcltn": 8242, "dssrt": 8243, "psnt": 8244, "crmpld": 8245, "nmts": 8246, "fncng": 8247, "bllywd": 8248, "mnny": 8249, "jhnnsbrg": 8250, "srgd": 8251, "dsgstd": 8252, "chcks": 8253, "grzng": 8254, "vlblty": 8255, "thghtflly": 8256, "rdgs": 8257, "nlt": 8258, "flnkd": 8259, "ppln": 8260, "tchngs": 8261, "50th": 8262, "frtl": 8263, "brch": 8264, "swty": 8265, "bdygrd": 8266, "lvy": 8267, "srtd": 8268, "rfc": 8269, "spnsrs": 8270, "bdllh": 8271, "kyt": 8272, "dvsttd": 8273, "fxng": 8274, "lmrck": 8275, "snsrs": 8276, "nghtclb": 8277, "vrgrn": 8278, "blgrth": 8279, "cncptn": 8280, "bmbrdmnt": 8281, "rttng": 8282, "rfrmtn": 8283, "frtnth": 8284, "nrthmbrlnd": 8285, "wkfld": 8286, "pnshd": 8287, "rssns": 8288, "ntcs": 8289, "sbr": 8290, "fvrd": 8291, "bttrd": 8292, "trds": 8293, "dfnng": 8294, "drcy": 8295, "rtnng": 8296, "strssd": 8297, "pgn": 8298, "bttlns": 8299, "vlln": 8300, "rgg": 8301, "dsrs": 8302, "wltshr": 8303, "thvs": 8304, "cyln": 8305, "clv": 8306, "cmprms": 8307, "mgnry": 8308, "trvlrs": 8309, "z\u00fcrch": 8310, "skyl": 8311, "dntn": 8312, "sqdrns": 8313, "nmsk": 8314, "nctd": 8315, "hmrs": 8316, "prcrsr": 8317, "vghn": 8318, "nmbrng": 8319, "jnrs": 8320, "fnncd": 8321, "cmprtmnt": 8322, "bghdd": 8323, "nsrng": 8324, "smsh": 8325, "ttrbts": 8326, "brwnsh": 8327, "rsm": 8328, "brlngtn": 8329, "prdly": 8330, "cnsmng": 8331, "ncvrd": 8332, "bsrvng": 8333, "cnwy": 8334, "rccrs": 8335, "hsky": 8336, "crly": 8337, "jmcn": 8338, "thd": 8339, "ngnrd": 8340, "pstng": 8341, "cmmmrt": 8342, "tlzd": 8343, "lcvr": 8344, "slctv": 8345, "scrtrt": 8346, "pbs": 8347, "xpdtns": 8348, "rlstc": 8349, "tmpttn": 8350, "cnfrnt": 8351, "rsnng": 8352, "drctry": 8353, "blcknss": 8354, "vrtt": 8355, "rchbld": 8356, "nfrrd": 8357, "crmc": 8358, "bwf": 8359, "cnstnc": 8360, "dmng": 8361, "thrntn": 8362, "fnnclly": 8363, "bmps": 8364, "vkngs": 8365, "xcldd": 8366, "scknss": 8367, "strlld": 8368, "shpbldng": 8369, "cscd": 8370, "brncs": 8371, "grry": 8372, "xctvs": 8373, "txtr": 8374, "prchsng": 8375, "rsmbld": 8376, "cntmtrs": 8377, "hmsphr": 8378, "twnty20": 8379, "vpr": 8380, "rmmt": 8381, "prmts": 8382, "gps": 8383, "thsl": 8384, "nrq": 8385, "syndctd": 8386, "blstd": 8387, "nzs": 8388, "mnsfld": 8389, "pstvly": 8390, "nnj": 8391, "cmn": 8392, "cltch": 8393, "ssstng": 8394, "nfms": 8395, "dvntgs": 8396, "tnnts": 8397, "pllr": 8398, "dlphns": 8399, "rcptrs": 8400, "slls": 8401, "mchnc": 8402, "rsstnt": 8403, "vrvwth": 8404, "pnlts": 8405, "hmbl": 8406, "lwll": 8407, "thmp": 8408, "shrkd": 8409, "wstng": 8410, "sbdstrct": 8411, "slsn": 8412, "trntn": 8413, "frrwd": 8414, "ncssty": 8415, "ccntnt": 8416, "bmpd": 8417, "crrpt": 8418, "pplrly": 8419, "pnchyt": 8420, "hddld": 8421, "xld": 8422, "sttwd": 8423, "rcpnts": 8424, "sbbng": 8425, "mmrbl": 8426, "slghtr": 8427, "mrlyn": 8428, "kdnppng": 8429, "rnlt": 8430, "bckst": 8431, "swll": 8432, "mltmd": 8433, "cqrng": 8434, "hrdls": 8435, "snsl": 8436, "crsng": 8437, "26th": 8438, "bbtt": 8439, "khrsn": 8440, "chmbrln": 8441, "flckrng": 8442, "hnchd": 8443, "twtch": 8444, "clmx": 8445, "ncrprts": 8446, "mzmbq": 8447, "hbrt": 8448, "trnc": 8449, "ccrrnc": 8450, "cncntrtng": 8451, "stllts": 8452, "nbls": 8453, "cynth": 8454, "hmstd": 8455, "pgrd": 8456, "ncrgmnt": 8457, "fzzy": 8458, "bgrphyh": 8459, "lrs": 8460, "ptchng": 8461, "vnngs": 8462, "drvtv": 8463, "cnvnnc": 8464, "brrw": 8465, "ntrlst": 8466, "sntnl": 8467, "ntrdcs": 8468, "rgrds": 8469, "rsgn": 8470, "lgrthms": 8471, "nrm": 8472, "blrrd": 8473, "dzd": 8474, "ncstrl": 8475, "pggy": 8476, "slvng": 8477, "cmll": 8478, "mrrll": 8479, "mblty": 8480, "lggg": 8481, "pdcst": 8482, "stffrd": 8483, "trts": 8484, "mprtntly": 8485, "prdtr": 8486, "mmmy": 8487, "chtng": 8488, "ntnlty": 8489, "mrmr": 8490, "lnn": 8491, "trnscrptn": 8492, "bmnt": 8493, "pngn": 8494, "sttlr": 8495, "smllng": 8496, "shl": 8497, "vndrblt": 8498, "brny": 8499, "fscntng": 8500, "ttns": 8501, "mtvtd": 8502, "sprntr": 8503, "lcnsng": 8504, "crcts": 8505, "mrccn": 8506, "plntng": 8507, "xcvtd": 8508, "mldv": 8509, "trnsfrs": 8510, "whld": 8511, "dngn": 8512, "prmm": 8513, "dqt": 8514, "dcy": 8515, "ttts": 8516, "ncrprtng": 8517, "hrdtry": 8518, "rlgh": 8519, "vmp": 8520, "wlly": 8521, "dryly": 8522, "scrb": 8523, "scrf": 8524, "rpns": 8525, "slst": 8526, "sprmn": 8527, "strwbrry": 8528, "hrlm": 8529, "thnksgvng": 8530, "gypsy": 8531, "glssy": 8532, "ntrgd": 8533, "drtmth": 8534, "wrms": 8535, "dsgstng": 8536, "mnnt": 8537, "tlvsd": 8538, "nrthmptn": 8539, "prtnrshps": 8540, "wndrs": 8541, "dnsr": 8542, "fwlr": 8543, "wllngly": 8544, "bgrphcl": 8545, "nthsstc": 8546, "crsby": 8547, "crprl": 8548, "trnslts": 8549, "trks": 8550, "hymn": 8551, "pprbck": 8552, "prdy": 8553, "lngtd": 8554, "swyd": 8555, "gymnst": 8556, "drns": 8557, "dvnprt": 8558, "gsln": 8559, "nvstgtv": 8560, "nwllng": 8561, "cmpln": 8562, "npkn": 8563, "stmblng": 8564, "dscmfrt": 8565, "cstls": 8566, "nvll": 8567, "vgtbl": 8568, "trnds": 8569, "schndr": 8570, "lnstr": 8571, "swns": 8572, "sffrg": 8573, "llstrtn": 8574, "sqrs": 8575, "symblc": 8576, "srfcd": 8577, "ddgrs": 8578, "smg": 8579, "cmplld": 8580, "nstlltns": 8581, "grvyrd": 8582, "tmr": 8583, "sttsmn": 8584, "frmlnd": 8585, "dx": 8586, "prlr": 8587, "psnts": 8588, "prcht": 8589, "brndnbrg": 8590, "smfnl": 8591, "blgd": 8592, "clby": 8593, "ccpts": 8594, "cgh": 8595, "trmnds": 8596, "txtbk": 8597, "svns": 8598, "ndftd": 8599, "prp": 8600, "ccstmd": 8601, "hdmstr": 8602, "plrl": 8603, "s\u00e1nchz": 8604, "stgng": 8605, "fdbck": 8606, "phnmn": 8607, "hmmng": 8608, "dvnty": 8609, "prsmd": 8610, "rcgnzng": 8611, "strr": 8612, "prcssd": 8613, "nscrbd": 8614, "rlctn": 8615, "mtnlss": 8616, "fxtrs": 8617, "blndng": 8618, "mrqss": 8619, "fddl": 8620, "grpd": 8621, "dsblts": 8622, "chndr": 8623, "bzzng": 8624, "fts": 8625, "ndvdlly": 8626, "rjctn": 8627, "rrgnzd": 8628, "psng": 8629, "wrckd": 8630, "fftnth": 8631, "sgnlng": 8632, "rdl": 8633, "ndrnc": 8634, "mrnngs": 8635, "rmxs": 8636, "bsntly": 8637, "trmbl": 8638, "mbrs": 8639, "physlgy": 8640, "nnncng": 8641, "hsptlty": 8642, "rprd": 8643, "cmprbl": 8644, "ssssd": 8645, "hrdng": 8646, "dvcts": 8647, "ftch": 8648, "chrn": 8649, "rsl": 8650, "qntn": 8651, "lstnrs": 8652, "trnch": 8653, "ngld": 8654, "bdsd": 8655, "wdd": 8656, "kch": 8657, "prsstnt": 8658, "flnk": 8659, "cnslr": 8660, "mdfctns": 8661, "krr": 8662, "qntts": 8663, "ntrrpt": 8664, "bchnn": 8665, "rchlgst": 8666, "cmt": 8667, "ctdl": 8668, "prmtns": 8669, "cstln": 8670, "vtrnry": 8671, "chrfl": 8672, "bhv": 8673, "ftsl": 8674, "vjy": 8675, "pnsh": 8676, "chlk": 8677, "hdlghts": 8678, "dynm": 8679, "dfndrs": 8680, "lttry": 8681, "prjctn": 8682, "lbrls": 8683, "ntk": 8684, "glttrng": 8685, "wzrds": 8686, "nstbl": 8687, "brrstr": 8688, "shckng": 8689, "prcpttn": 8690, "clftn": 8691, "spclsd": 8692, "cttr": 8693, "vntn": 8694, "brghtnss": 8695, "swy": 8696, "rrndssmnt": 8697, "hndy": 8698, "strngthn": 8699, "prplld": 8700, "prpllr": 8701, "dtrmnng": 8702, "dflt": 8703, "brdx": 8704, "splsh": 8705, "sxphnst": 8706, "snglr": 8707, "crdnt": 8708, "wg": 8709, "prsctn": 8710, "fmd": 8711, "stllr": 8712, "pssgs": 8713, "hppr": 8714, "sffcntly": 8715, "ryls": 8716, "flcns": 8717, "brrrs": 8718, "brndy": 8719, "bbb": 8720, "srrnd": 8721, "rlxng": 8722, "dsrvs": 8723, "gdmn": 8724, "prvlg": 8725, "brmn": 8726, "nncssry": 8727, "hmwrk": 8728, "mntrs": 8729, "crmbd": 8730, "scrppd": 8731, "qncy": 8732, "sbn": 8733, "stlld": 8734, "sprwld": 8735, "plgrmg": 8736, "brgr": 8737, "cndtnng": 8738, "vdth": 8739, "27th": 8740, "cllctrs": 8741, "xps": 8742, "zh": 8743, "ntrvls": 8744, "snn": 8745, "slwng": 8746, "mplyrs": 8747, "sbstntlly": 8748, "wrmr": 8749, "rsts": 8750, "sprhr": 8751, "rgnng": 8752, "mrx": 8753, "mgcn": 8754, "clcm": 8755, "rbbl": 8756, "twnts": 8757, "jnk": 8758, "mrt\u00edn": 8759, "cnfsng": 8760, "nvrsdd": 8761, "njctn": 8762, "pnthr": 8763, "tnmy": 8764, "xtrct": 8765, "mjrs": 8766, "grysn": 8767, "twnsnd": 8768, "bstrds": 8769, "wtt": 8770, "sndys": 8771, "bndnc": 8772, "sshl": 8773, "smlrty": 8774, "cmpsng": 8775, "tbg": 8776, "plyfl": 8777, "dks": 8778, "rtry": 8779, "skrts": 8780, "scrpd": 8781, "hrp": 8782, "bwn": 8783, "hrrchy": 8784, "dstnd": 8785, "kldn": 8786, "strckn": 8787, "cllbrtns": 8788, "m\u00fcllr": 8789, "ncrprt": 8790, "trstng": 8791, "frsly": 8792, "pppng": 8793, "rvlvs": 8794, "clwn": 8795, "hltn": 8796, "vnm": 8797, "bhm": 8798, "tyng": 8799, "mrtgg": 8800, "sccsss": 8801, "strpd": 8802, "sllr": 8803, "plnttns": 8804, "mrm": 8805, "pstpnd": 8806, "wlcmng": 8807, "ctvsm": 8808, "dsplyng": 8809, "hrbs": 8810, "nf": 8811, "fcc": 8812, "bkd": 8813, "trctr": 8814, "nwrd": 8815, "28th": 8816, "grks": 8817, "thcl": 8818, "rmrks": 8819, "tmprt": 8820, "mskd": 8821, "kw": 8822, "trll": 8823, "strctrd": 8824, "mddlwght": 8825, "mbsh": 8826, "sbs": 8827, "cdm": 8828, "fthlls": 8829, "pckgs": 8830, "ttndnt": 8831, "spnnd": 8832, "prtctr": 8833, "dbb": 8834, "xcptns": 8835, "pltn": 8836, "mrtmr": 8837, "prprtnl": 8838, "xprd": 8839, "mdttn": 8840, "rtls": 8841, "sndrlnd": 8842, "mrgnl": 8843, "wrps": 8844, "pdstrn": 8845, "bzzd": 8846, "lndwnr": 8847, "lnss": 8848, "kndly": 8849, "nsst": 8850, "pckgng": 8851, "frstly": 8852, "ltrntng": 8853, "ptnl": 8854, "vbrnt": 8855, "rssrng": 8856, "grdng": 8857, "ntrfr": 8858, "mplctns": 8859, "sldm": 8860, "trsn": 8861, "sthtc": 8862, "frnkly": 8863, "ntrsctns": 8864, "bmd": 8865, "nnnc": 8866, "pddy": 8867, "scffd": 8868, "mdld": 8869, "wrdrb": 8870, "mrln": 8871, "trdr": 8872, "strndd": 8873, "xtnctn": 8874, "frmst": 8875, "rmnsq": 8876, "gpng": 8877, "bntly": 8878, "bkry": 8879, "trtmnts": 8880, "krby": 8881, "brclt": 8882, "ncmng": 8883, "mcgll": 8884, "crdntd": 8885, "sqsh": 8886, "cntnlly": 8887, "srcsm": 8888, "rdnnc": 8889, "pytn": 8890, "sxlty": 8891, "brrd": 8892, "hndcp": 8893, "mrtnz": 8894, "vrgng": 8895, "frgs": 8896, "rlt": 8897, "ndrftd": 8898, "jkd": 8899, "lggng": 8900, "plstr": 8901, "grcfl": 8902, "hlr": 8903, "dlbrt": 8904, "mlgmtd": 8905, "pplng": 8906, "mstrd": 8907, "rcgnzs": 8908, "slgn": 8909, "fctns": 8910, "dsktp": 8911, "knyn": 8912, "clts": 8913, "wndshld": 8914, "xplsvs": 8915, "bthng": 8916, "snps": 8917, "wgns": 8918, "ccktl": 8919, "plly": 8920, "rmnscnt": 8921, "wlmngtn": 8922, "cnry": 8923, "ssnnh": 8924, "prcln": 8925, "cntsts": 8926, "hlm": 8927, "mgry": 8928, "mtrc": 8929, "ccmltd": 8930, "hrnss": 8931, "pssv": 8932, "ggglng": 8933, "chncl": 8934, "ntrtn": 8935, "swllng": 8936, "sctch": 8937, "ljndr": 8938, "nfrr": 8939, "dvnt": 8940, "qstrn": 8941, "mldly": 8942, "lmttns": 8943, "dwght": 8944, "crngd": 8945, "stntn": 8946, "prncplty": 8947, "rgstry": 8948, "nfcts": 8949, "nnny": 8950, "mrgns": 8951, "lrchd": 8952, "shftrs": 8953, "byl": 8954, "rtms": 8955, "jsphn": 8956, "fmbld": 8957, "nttn": 8958, "fngrnls": 8959, "syn": 8960, "cmmndnt": 8961, "bbbls": 8962, "plp": 8963, "wts": 8964, "crrdrs": 8965, "gmtrc": 8966, "fldr": 8967, "rcnstrctd": 8968, "strtlng": 8969, "crtnst": 8970, "phtgrphd": 8971, "mpld": 8972, "mrxst": 8973, "cmplnc": 8974, "dvsttng": 8975, "dspprs": 8976, "swngs": 8977, "cldwll": 8978, "llgnc": 8979, "brrls": 8980, "tstrtchd": 8981, "scrpts": 8982, "frtfctns": 8983, "xqst": 8984, "crtcsd": 8985, "rmbld": 8986, "nstncs": 8987, "nwcmr": 8988, "frqncs": 8989, "cptls": 8990, "rbld": 8991, "cstsy": 8992, "krmn": 8993, "dwllngs": 8994, "frwrks": 8995, "grmnc": 8996, "gff": 8997, "prtsn": 8998, "cnmtgrphy": 8999, "plckd": 9000, "grng": 9001, "smck": 9002, "ldn": 9003, "wnklr": 9004, "scrtchng": 9005, "xtrctn": 9006, "cyrl": 9007, "cmplnng": 9008, "stmpd": 9009, "lbrdr": 9010, "rprntd": 9011, "rprdctn": 9012, "cyprt": 9013, "ngtt": 9014, "bthl": 9015, "nfr": 9016, "brbds": 9017, "brvry": 9018, "sdng": 9019, "hntngtn": 9020, "pprts": 9021, "ccstns": 9022, "ndrcvr": 9023, "ngrvd": 9024, "dlgy": 9025, "dcsv": 9026, "cnfrrd": 9027, "tbrclss": 9028, "mlw": 9029, "sprmrkt": 9030, "rnvtns": 9031, "msks": 9032, "pzn\u0144": 9033, "snstr": 9034, "hngs": 9035, "nrrs": 9036, "spnds": 9037, "bhmn": 9038, "sncr": 9039, "hsh": 9040, "sspcsly": 9041, "dnyng": 9042, "ntndng": 9043, "rsmblng": 9044, "rcp": 9045, "tmts": 9046, "chfly": 9047, "bnc": 9048, "xmntns": 9049, "frrll": 9050, "ncly": 9051, "stnch": 9052, "dbrh": 9053, "mrtr": 9054, "tnttvly": 9055, "wktbl": 9056, "dsmnd": 9057, "sbscrptn": 9058, "crssrds": 9059, "svy": 9060, "mrsll": 9061, "svrgnty": 9062, "nglctd": 9063, "mnknd": 9064, "prsch": 9065, "srgns": 9066, "lnksffcl": 9067, "trcht": 9068, "ndwmnt": 9069, "svrd": 9070, "pndmc": 9071, "phb": 9072, "ntsh": 9073, "hsbnds": 9074, "cmprs": 9075, "sbstncs": 9076, "cws": 9077, "dstryrs": 9078, "prhbtn": 9079, "blmnt": 9080, "crrnts": 9081, "sptl": 9082, "pptt": 9083, "dvsnl": 9084, "sspcns": 9085, "strnng": 9086, "hndls": 9087, "crnym": 9088, "brdrng": 9089, "crdc": 9090, "dmnnc": 9091, "rgrttd": 9092, "shltrd": 9093, "glfr": 9094, "chrgrphr": 9095, "cncdd": 9096, "tnts": 9097, "mrdn": 9098, "mckng": 9099, "glgst": 9100, "tyn": 9101, "ssrnc": 9102, "hrtfrdshr": 9103, "ntrvl": 9104, "cnc": 9105, "scrll": 9106, "xts": 9107, "flrtng": 9108, "pmrn": 9109, "mtvtn": 9110, "pnchng": 9111, "prphrl": 9112, "bsssn": 9113, "rndrng": 9114, "frrms": 9115, "cgr": 9116, "hlstn": 9117, "tghtn": 9118, "pnrd": 9119, "bttrly": 9120, "wrwckshr": 9121, "szk": 9122, "ccs": 9123, "cndm": 9124, "dmr": 9125, "glcl": 9126, "mph": 9127, "wgs": 9128, "chmny": 9129, "kpp": 9130, "knsngtn": 9131, "mrtyr": 9132, "cyrs": 9133, "cclrtd": 9134, "slctns": 9135, "shrln": 9136, "csmc": 9137, "chynn": 9138, "mtths": 9139, "twrng": 9140, "clrgymn": 9141, "xms": 9142, "bhrn": 9143, "sps": 9144, "ptntd": 9145, "trmbn": 9146, "fscntn": 9147, "dfntns": 9148, "glpd": 9149, "stylzd": 9150, "frshly": 9151, "smtr": 9152, "plyby": 9153, "mppd": 9154, "dclr": 9155, "rbrndd": 9156, "pdts": 9157, "msng": 9158, "bhvrl": 9159, "syndct": 9160, "html": 9161, "grspng": 9162, "chrtng": 9163, "rnsm": 9164, "gstrng": 9165, "hvnly": 9166, "crdl": 9167, "stlkng": 9168, "ngttd": 9169, "cncrd": 9170, "thyv": 9171, "frrst": 9172, "skt": 9173, "chthm": 9174, "grnny": 9175, "rchdcn": 9176, "pdl": 9177, "swyng": 9178, "fckd": 9179, "prgrssn": 9180, "bthvn": 9181, "crvn": 9182, "hstrs": 9183, "nvn": 9184, "whrby": 9185, "rgnsm": 9186, "cmprssn": 9187, "dfnt": 9188, "rny": 9189, "tlnd": 9190, "sclly": 9191, "cmmnl": 9192, "thntc": 9193, "scnry": 9194, "prvlnt": 9195, "vwr": 9196, "ylls": 9197, "wkr": 9198, "zbkstn": 9199, "pch": 9200, "brgndy": 9201, "bnty": 9202, "mzmnt": 9203, "jrkng": 9204, "dvrtsmnts": 9205, "wldcts": 9206, "nrltd": 9207, "ccrtly": 9208, "ntqty": 9209, "btflly": 9210, "rbldng": 9211, "fscst": 9212, "cghng": 9213, "styx": 9214, "grndd": 9215, "frdd": 9216, "lblty": 9217, "vrhrd": 9218, "snty": 9219, "wvn": 9220, "ntrty": 9221, "lssndr": 9222, "mccy": 9223, "xtnsns": 9224, "stwrd": 9225, "prb": 9226, "dmrtn": 9227, "phlls": 9228, "blcksh": 9229, "mdhy": 9230, "stmng": 9231, "hbby": 9232, "psychtrst": 9233, "lnt": 9234, "brndt": 9235, "strsbrg": 9236, "drght": 9237, "ntrgn": 9238, "hndbk": 9239, "cfl": 9240, "frgvnss": 9241, "gntn": 9242, "lyns": 9243, "vrsly": 9244, "chnk": 9245, "nctv": 9246, "ndbtdly": 9247, "qlfctns": 9248, "gpd": 9249, "sbjctd": 9250, "ttrctng": 9251, "trgtng": 9252, "frnsc": 9253, "krdsh": 9254, "ssss": 9255, "mnmntl": 9256, "hmphry": 9257, "jmpr": 9258, "nmns": 9259, "prvst": 9260, "hnll": 9261, "slsmn": 9262, "wgh": 9263, "prtryl": 9264, "rnwl": 9265, "hrdst": 9266, "fltn": 9267, "phtgrphrs": 9268, "krmr": 9269, "brms": 9270, "thrstng": 9271, "crtrdg": 9272, "hdg": 9273, "mphszd": 9274, "smthsnn": 9275, "rdsgntd": 9276, "cncssn": 9277, "srvrs": 9278, "pddd": 9279, "29th": 9280, "hffmn": 9281, "prsthd": 9282, "wstwrd": 9283, "ddy": 9284, "rlts": 9285, "slzbrg": 9286, "rcrts": 9287, "crtvty": 9288, "dryng": 9289, "lctrd": 9290, "sftr": 9291, "hghnss": 9292, "srpnt": 9293, "bdrms": 9294, "brpt": 9295, "xv": 9296, "mttrng": 9297, "bstcls": 9298, "jrmh": 9299, "pct": 9300, "rmmnt": 9301, "rtns": 9302, "rnwbl": 9303, "synd": 9304, "jcqln": 9305, "rphn": 9306, "rlv": 9307, "rwnd": 9308, "dmnq": 9309, "rthlss": 9310, "hllsd": 9311, "crpss": 9312, "stttry": 9313, "mmm": 9314, "grmly": 9315, "smr": 9316, "stls": 9317, "sqrrl": 9318, "tchncn": 9319, "vrlkd": 9320, "cmplxs": 9321, "mzzl": 9322, "symmtry": 9323, "xpdtnry": 9324, "tpprry": 9325, "fbls": 9326, "mrtns": 9327, "vrgl": 9328, "mrmrs": 9329, "whrf": 9330, "wdnng": 9331, "rylty": 9332, "xtrctd": 9333, "cqntnc": 9334, "rphng": 9335, "lnnn": 9336, "dclnng": 9337, "crnls": 9338, "dvrtsmnt": 9339, "jckts": 9340, "pdmnt": 9341, "prncplly": 9342, "rfsl": 9343, "rsrts": 9344, "ssssns": 9345, "wtlnds": 9346, "hkr": 9347, "chnt": 9348, "jrst": 9349, "pndr": 9350, "hmpsn": 9351, "gngzh": 9352, "grwlng": 9353, "gnfr": 9354, "frgd": 9355, "prpstn": 9356, "cnfss": 9357, "frkd": 9358, "lyrcl": 9359, "cbls": 9360, "dttd": 9361, "mdfctn": 9362, "clbr": 9363, "pltnt": 9364, "pnlp": 9365, "nstn": 9366, "ttrd": 9367, "nglr": 9368, "rft": 9369, "ddsn": 9370, "tmblng": 9371, "mkshft": 9372, "wtrfrd": 9373, "prplsn": 9374, "hffd": 9375, "prsprty": 9376, "ntch": 9377, "ntrscts": 9378, "bnj": 9379, "dtnd": 9380, "trnsvrs": 9381, "ntny": 9382, "grnwd": 9383, "dsprsd": 9384, "cntnnl": 9385, "sbrn": 9386, "kty": 9387, "ffctvnss": 9388, "sclp": 9389, "stmbl": 9390, "nghtstnd": 9391, "ncmfrtbly": 9392, "tlrnc": 9393, "tnsns": 9394, "dmgs": 9395, "cmply": 9396, "kls": 9397, "rmrk": 9398, "swtly": 9399, "bhms": 9400, "vnly": 9401, "nhs": 9402, "chrmsm": 9403, "pmps": 9404, "rvns": 9405, "shrbs": 9406, "gstrs": 9407, "brndng": 9408, "ttchmnt": 9409, "mrls": 9410, "clssmts": 9411, "tbth": 9412, "rdgrs": 9413, "tnnt": 9414, "ptrls": 9415, "frl": 9416, "drnng": 9417, "stsfyng": 9418, "cntnrs": 9419, "hstryrly": 9420, "ptrbrgh": 9421, "snchz": 9422, "ntflx": 9423, "splshd": 9424, "prvlgs": 9425, "tngs": 9426, "cmprng": 9427, "flnch": 9428, "jchm": 9429, "xplctly": 9430, "klsy": 9431, "mrgnc": 9432, "gncd": 9433, "lmpr": 9434, "vsbly": 9435, "wtrfrnt": 9436, "hnrk": 9437, "rfnd": 9438, "hydrlctrc": 9439, "vntrd": 9440, "smky": 9441, "mbtn": 9442, "shmmrng": 9443, "vdk": 9444, "cnvx": 9445, "rsr": 9446, "dscs": 9447, "spchs": 9448, "nghty": 9449, "frgmnt": 9450, "hnymn": 9451, "dvdng": 9452, "tcms": 9453, "xplct": 9454, "shnkr": 9455, "plzz": 9456, "ntrrgtn": 9457, "cdn": 9458, "srns": 9459, "rgyn": 9460, "bngd": 9461, "sldrty": 9462, "rspnds": 9463, "bldrs": 9464, "mnty": 9465, "ttckr": 9466, "nstttd": 9467, "snck": 9468, "njys": 9469, "strcl": 9470, "hrmlss": 9471, "blgst": 9472, "q\u00e9bc": 9473, "ccssrs": 9474, "cnslt": 9475, "bngng": 9476, "xcvtn": 9477, "png": 9478, "kybrdst": 9479, "phspht": 9480, "flyrs": 9481, "cmfrtbly": 9482, "mdrtly": 9483, "bstr": 9484, "nlmtd": 9485, "dmnstrtns": 9486, "knghtd": 9487, "wghts": 9488, "mllry": 9489, "drry": 9490, "wtkns": 9491, "ldrmn": 9492, "grll": 9493, "dsptchd": 9494, "ndrgng": 9495, "rd2": 9496, "trmn": 9497, "ptrng": 9498, "mnfrd": 9499, "lbrtt": 9500, "chttng": 9501, "mgnt": 9502, "ltgtn": 9503, "prnnctn": 9504, "cmmnsts": 9505, "ndrg": 9506, "ffrngs": 9507, "strwll": 9508, "zppr": 9509, "lrmd": 9510, "mxtp": 9511, "rnfrst": 9512, "fdl": 9513, "plgzd": 9514, "lctrfd": 9515, "ptrt": 9516, "flrl": 9517, "lvtrs": 9518, "ntcl": 9519, "smmn": 9520, "lvtns": 9521, "hstnt": 9522, "gsps": 9523, "tcsn": 9524, "wknng": 9525, "cylndrcl": 9526, "wdg": 9527, "prgrmmd": 9528, "pnchs": 9529, "gyn": 9530, "rsmry": 9531, "chrprsn": 9532, "clwd": 9533, "srjv": 9534, "thcknss": 9535, "mcbrd": 9536, "bckgrnds": 9537, "cmplsry": 9538, "mblm": 9539, "rkd": 9540, "brdd": 9541, "lpng": 9542, "hbbrd": 9543, "jkb": 9544, "prnd": 9545, "jdsm": 9546, "rtgrs": 9547, "lymp": 9548, "plyflly": 9549, "pnngs": 9550, "nglc": 9551, "dnmntn": 9552, "ndstrlst": 9553, "cnmtgrphr": 9554, "prsrvs": 9555, "mndrn": 9556, "clldd": 9557, "cmprssd": 9558, "swlld": 9559, "trmwy": 9560, "blc": 9561, "stcy": 9562, "d\u00fcssldrf": 9563, "gbbs": 9564, "scndnvn": 9565, "dwnhll": 9566, "srprss": 9567, "hsn": 9568, "psnd": 9569, "dvlpmntth": 9570, "cpsl": 9571, "zchry": 9572, "mcln": 9573, "rcklss": 9574, "lgbrc": 9575, "wlld": 9576, "mrmn": 9577, "rnmntl": 9578, "mtld": 9579, "2d": 9580, "dnb": 9581, "psychdlc": 9582, "cstmry": 9583, "wkn": 9584, "prsrvng": 9585, "stw": 9586, "wltz": 9587, "blkn": 9588, "gldng": 9589, "cncrrntly": 9590, "hks": 9591, "cpd": 9592, "qckr": 9593, "rtrtng": 9594, "slb": 9595, "glblly": 9596, "dstrbtr": 9597, "nckl": 9598, "scttrng": 9599, "wrly": 9600, "prcttnrs": 9601, "xggrtd": 9602, "dtctvs": 9603, "ccrd": 9604, "swtchs": 9605, "mldc": 9606, "nstld": 9607, "djstng": 9608, "drwrs": 9609, "jgr": 9610, "wlkwy": 9611, "trbns": 9612, "lndlrd": 9613, "shrpshr": 9614, "wlknsn": 9615, "dntfs": 9616, "ncrntn": 9617, "grsslnd": 9618, "cntrbtrs": 9619, "cntnnts": 9620, "31st": 9621, "lsnd": 9622, "cqntd": 9623, "mrtlty": 9624, "nsng": 9625, "mystc": 9626, "spprss": 9627, "prjctng": 9628, "mlds": 9629, "prbbl": 9630, "hsnt": 9631, "prtcpts": 9632, "ksr": 9633, "hzrd": 9634, "bhn": 9635, "btswn": 9636, "cngrtltns": 9637, "mhn": 9638, "rmrkbly": 9639, "hydrlc": 9640, "prstg": 9641, "dlx": 9642, "nwntd": 9643, "ldhm": 9644, "wkpd": 9645, "grdy": 9646, "glzd": 9647, "sggstns": 9648, "hplss": 9649, "bcc": 9650, "bryng": 9651, "xfrdshr": 9652, "lprd": 9653, "plsng": 9654, "shlly": 9655, "fy": 9656, "htchnsn": 9657, "cdng": 9658, "swmmrs": 9659, "mrkrs": 9660, "gllghr": 9661, "nsnty": 9662, "mddltn": 9663, "gldr": 9664, "cnsm": 9665, "brstng": 9666, "dfndnt": 9667, "jdcry": 9668, "qrm": 9669, "khz": 9670, "ccdntl": 9671, "wlnt": 9672, "hmbldt": 9673, "ynk": 9674, "npprprt": 9675, "mlts": 9676, "clckng": 9677, "dscpl": 9678, "hnz": 9679, "bttlng": 9680, "glng": 9681, "ntntnlly": 9682, "spld": 9683, "shttrng": 9684, "llln": 9685, "cnqr": 9686, "tkvr": 9687, "whtsvr": 9688, "dmscs": 9689, "sndh": 9690, "lyrcst": 9691, "vtr": 9692, "crdld": 9693, "pdmc": 9694, "mshrm": 9695, "rchrs": 9696, "pckrs": 9697, "plntry": 9698, "bsrd": 9699, "nrl": 9700, "fshrmn": 9701, "nzyms": 9702, "xplttn": 9703, "cntmpt": 9704, "smsn": 9705, "trrrsts": 9706, "mpsng": 9707, "dmgrphc": 9708, "rdngs": 9709, "psssss": 9710, "nfctns": 9711, "rprdctv": 9712, "clnsts": 9713, "wcht": 9714, "strngld": 9715, "scrcly": 9716, "rcptns": 9717, "nmrcl": 9718, "lvndr": 9719, "rmmbrs": 9720, "pml": 9721, "lflss": 9722, "mnvr": 9723, "nttnghmshr": 9724, "hcks": 9725, "stlln": 9726, "hbsbrg": 9727, "pvl": 9728, "bddng": 9729, "shth": 9730, "gzs": 9731, "rbst": 9732, "bsrb": 9733, "sbrdnt": 9734, "dfts": 9735, "ntrnlly": 9736, "crdbrd": 9737, "trnks": 9738, "sknnd": 9739, "btry": 9740, "rmxd": 9741, "mghl": 9742, "crnvrs": 9743, "gdnght": 9744, "brfcs": 9745, "whrls": 9746, "rddy": 9747, "hgn": 9748, "dsppntng": 9749, "stngng": 9750, "schlrshps": 9751, "ssssntd": 9752, "scrrd": 9753, "plrm": 9754, "tdrs": 9755, "clnchng": 9756, "chltnhm": 9757, "wdlnds": 9758, "strnghld": 9759, "cldr": 9760, "bryc": 9761, "ntnsfd": 9762, "dprtng": 9763, "vltns": 9764, "trml": 9765, "crrspnds": 9766, "nxsly": 9767, "dstrctv": 9768, "drllng": 9769, "mnngfl": 9770, "slsh": 9771, "nmnl": 9772, "pz": 9773, "bj": 9774, "slndrs": 9775, "jrch": 9776, "nppn": 9777, "typd": 9778, "plyhs": 9779, "sstnblty": 9780, "rnc": 9781, "gnnss": 9782, "rvrtd": 9783, "mchls": 9784, "mccrtny": 9785, "rgnzr": 9786, "sptlght": 9787, "mntng": 9788, "mndz": 9789, "cnr": 9790, "tltng": 9791, "bstd": 9792, "mnkys": 9793, "qkr": 9794, "vcncy": 9795, "crtkr": 9796, "mxmln": 9797, "prcttnr": 9798, "mttns": 9799, "ndrwy": 9800, "lcstrshr": 9801, "cbb": 9802, "znc": 9803, "strngthnd": 9804, "nqrd": 9805, "sctd": 9806, "rvlvr": 9807, "sbstrt": 9808, "dmttng": 9809, "blndd": 9810, "rsprtry": 9811, "glgc": 9812, "xprssng": 9813, "ssstnts": 9814, "nkr": 9815, "tf": 9816, "bsmn": 9817, "nfnty": 9818, "psych": 9819, "xd": 9820, "crvng": 9821, "bdvrsty": 9822, "ktrn": 9823, "drbl": 9824, "cthy": 9825, "ngsh": 9826, "dnsly": 9827, "ccmplshmnts": 9828, "pltzr": 9829, "spclsng": 9830, "dpndd": 9831, "rdvlpmnt": 9832, "bbrvtn": 9833, "nmplymnt": 9834, "rdtng": 9835, "cntnty": 9836, "cnnll": 9837, "dmsdy": 9838, "brwsr": 9839, "cbnts": 9840, "qlbrm": 9841, "scndly": 9842, "lnlnss": 9843, "brrn": 9844, "ctvtn": 9845, "frfld": 9846, "vbrtn": 9847, "ccntrc": 9848, "trrt": 9849, "brkp": 9850, "rthqks": 9851, "chckls": 9852, "hrmnc": 9853, "strtfrd": 9854, "chvrlt": 9855, "rmrrd": 9856, "tnglng": 9857, "gbrntrl": 9858, "snstns": 9859, "dgt": 9860, "mnnd": 9861, "nsts": 9862, "twnlnd": 9863, "tyrn": 9864, "bnkrpt": 9865, "bntn": 9866, "rflctns": 9867, "dcknsn": 9868, "mhrst": 9869, "fbrs": 9870, "scrbrgh": 9871, "bkn": 9872, "dscnd": 9873, "fltll": 9874, "wrcstrshr": 9875, "fnctnlty": 9876, "lkt": 9877, "qlfrs": 9878, "srvyng": 9879, "chrcl": 9880, "bcknghm": 9881, "vbl": 9882, "blgtn": 9883, "dscrt": 9884, "vmps": 9885, "blnch": 9886, "mngrl": 9887, "brgss": 9888, "blngngs": 9889, "nrr": 9890, "xctdly": 9891, "ghnn": 9892, "gmbh": 9893, "djnct": 9894, "klknny": 9895, "xcptnlly": 9896, "tnttv": 9897, "nvst": 9898, "rbd": 9899, "tmrr": 9900, "hmg": 9901, "xp": 9902, "byrd": 9903, "pstmstr": 9904, "jmmd": 9905, "c\u00f3rdb": 9906, "cnstrctng": 9907, "tngd": 9908, "typhn": 9909, "frwrds": 9910, "shrhldrs": 9911, "grtchn": 9912, "tmbs": 9913, "trmnt": 9914, "cmpgnd": 9915, "crmcs": 9916, "vrb": 9917, "mndl": 9918, "dfntv": 9919, "wltrwght": 9920, "nstrmnttn": 9921, "clln": 9922, "sc\u00e9t\u00e9": 9923, "dmnr": 9924, "dsmssl": 9925, "frfx": 9926, "hshd": 9927, "hwlng": 9928, "grtrd": 9929, "spksprsn": 9930, "mnplt": 9931, "thrpst": 9932, "mcn": 9933, "pssy": 9934, "thckr": 9935, "nchlsn": 9936, "phrss": 9937, "ssng": 9938, "mngln": 9939, "bjctd": 9940, "tmptng": 9941, "brthrn": 9942, "rchst": 9943, "vnty": 9944, "bshprc": 9945, "brdgt": 9946, "bstwd": 9947, "spnl": 9948, "nmrrd": 9949, "prlngd": 9950, "mthdlgy": 9951, "dprtv": 9952, "ntrncs": 9953, "mcrwv": 9954, "clf": 9955, "gttd": 9956, "gmbl": 9957, "lmntl": 9958, "swpd": 9959, "ggrssn": 9960, "nvdng": 9961, "rcsm": 9962, "tlrt": 9963, "g\u00f3mz": 9964, "sqld": 9965, "psnng": 9966, "ntrdscplnry": 9967, "grntng": 9968, "mpndng": 9969, "nnmsly": 9970, "prftbl": 9971, "ntrrptng": 9972, "brwr": 9973, "ykn": 9974, "grlc": 9975, "40th": 9976, "vcblry": 9977, "mrchnds": 9978, "jnts": 9979, "spclsts": 9980, "nnvtns": 9981, "trtry": 9982, "cptvty": 9983, "schwrtz": 9984, "nplnc": 9985, "vrszd": 9986, "smkd": 9987, "wnn": 9988, "mrshs": 9989, "mtrcycls": 9990, "nrrwng": 9991, "bnchs": 9992, "ddln": 9993, "prstttn": 9994, "mrcls": 9995, "stcktn": 9996, "dmnstrtrs": 9997, "dnll": 9998, "txtd": 9999, "jtt": 10000, "gdfry": 10001, "vrnclr": 10002, "lpstck": 10003, "sndwchs": 10004, "dsmy": 10005, "tlcs": 10006, "srpssd": 10007, "smplfd": 10008, "dlrs": 10009, "httr": 10010, "cllbrtr": 10011, "ttstd": 10012, "dxd": 10013, "dscsss": 10014, "dclrng": 10015, "gmtrd": 10016, "rshs": 10017, "dlys": 10018, "rngd": 10019, "tndm": 10020, "prsly": 10021, "cmplng": 10022, "brthlmw": 10023, "mltnt": 10024, "nnncs": 10025, "mptd": 10026, "vrsght": 10027, "dsqlfd": 10028, "blgtns": 10029, "rsnbly": 10030, "cnnmn": 10031, "mrnrs": 10032, "cyrllc": 10033, "strds": 10034, "lctnth": 10035, "whmprd": 10036, "fnncs": 10037, "spplr": 10038, "rlcs": 10039, "rthschld": 10040, "ncrprtn": 10041, "rmtly": 10042, "prchmnt": 10043, "pstssn": 10044, "schlswg": 10045, "grnsh": 10046, "drtng": 10047, "mnstc": 10048, "ntrcllgt": 10049, "hrcls": 10050, "snwy": 10051, "mtf": 10052, "nlck": 10053, "trctn": 10054, "frtnt": 10055, "nssts": 10056, "fmn": 10057, "drmmnd": 10058, "mtd": 10059, "vmt": 10060, "blckpl": 10061, "drrck": 10062, "spwnd": 10063, "xchngs": 10064, "hwll": 10065, "vrlg": 10066, "ttn": 10067, "dngrsly": 10068, "rglt": 10069, "pldg": 10070, "mnply": 10071, "schn": 10072, "shdwy": 10073, "mtrty": 10074, "nntrl": 10075, "drdfl": 10076, "sqrd": 10077, "smplr": 10078, "ccssn": 10079, "ncmpssng": 10080, "bllwd": 10081, "mmclt": 10082, "hrtd": 10083, "snpr": 10084, "hff": 10085, "hddrsfld": 10086, "srfng": 10087, "rsrrctn": 10088, "drctrl": 10089, "stpfthr": 10090, "nclsr": 10091, "mrss": 10092, "hstntly": 10093, "dct": 10094, "shrwsbry": 10095, "hmlts": 10096, "hwl": 10097, "clsm": 10098, "ssltd": 10099, "mplyng": 10100, "whlsl": 10101, "wss": 10102, "rchry": 10103, "blq": 10104, "sstn": 10105, "mrphlgy": 10106, "ccn": 10107, "wslyn": 10108, "shwrd": 10109, "chw": 10110, "flmmkrs": 10111, "dpttns": 10112, "rdtd": 10113, "sppng": 10114, "bndctn": 10115, "jnc": 10116, "nyc": 10117, "frn": 10118, "ffrdbl": 10119, "rdrg": 10120, "rdntn": 10121, "vnyrd": 10122, "mndln": 10123, "rchstrs": 10124, "nvsv": 10125, "fgrng": 10126, "bctrl": 10127, "sntmnt": 10128, "grnng": 10129, "nvstgtrs": 10130, "flflld": 10131, "svnn": 10132, "stmr": 10133, "sbbd": 10134, "scndd": 10135, "rbbns": 10136, "mntypc": 10137, "brnchd": 10138, "sntch": 10139, "chrltn": 10140, "gngdng": 10141, "bckly": 10142, "plstrd": 10143, "hrshly": 10144, "xhst": 10145, "cndc": 10146, "bhtn": 10147, "dntts": 10148, "ntmcy": 10149, "mbnt": 10150, "flrshd": 10151, "crssvr": 10152, "flttr": 10153, "dlphn": 10154, "glmd": 10155, "prsprs": 10156, "hrlw": 10157, "plgd": 10158, "krnl": 10159, "glm": 10160, "mcklnbrg": 10161, "bllnr": 10162, "nstllmnt": 10163, "lfn": 10164, "mtvs": 10165, "whstld": 10166, "bctrm": 10167, "sbst": 10168, "rdcs": 10169, "rcrtmnt": 10170, "yvs": 10171, "txtn": 10172, "ywnd": 10173, "smshwrds": 10174, "nlthc": 10175, "dncstr": 10176, "sknnr": 10177, "grfft": 10178, "crmpd": 10179, "ntnlsm": 10180, "cttgs": 10181, "ffnty": 10182, "dgnstc": 10183, "dcptn": 10184, "pplchn": 10185, "wldr": 10186, "tckng": 10187, "cmptn": 10188, "scrpng": 10189, "ndqt": 10190, "llgtmt": 10191, "dvrtsd": 10192, "rlrds": 10193, "syd": 10194, "trnslt": 10195, "smplc": 10196, "nx": 10197, "grlnd": 10198, "nrthmptnshr": 10199, "frsn": 10200, "lys": 10201, "prspcts": 10202, "cppng": 10203, "fndrsng": 10204, "ptchrs": 10205, "spprtv": 10206, "mtrsprt": 10207, "hstryt": 10208, "gh": 10209, "skptcl": 10210, "cndcts": 10211, "crlty": 10212, "d\u00edz": 10213, "ccsng": 10214, "nnd": 10215, "sffx": 10216, "snstvty": 10217, "mnrts": 10218, "dgts": 10219, "flxd": 10220, "hdgs": 10221, "ntcbl": 10222, "rcmmnd": 10223, "wmbly": 10224, "prtryng": 10225, "mnstrl": 10226, "dmts": 10227, "swld": 10228, "cnnbs": 10229, "psychtry": 10230, "scnrs": 10231, "ndrgn": 10232, "pw": 10233, "crmwll": 10234, "nblvbl": 10235, "spctrl": 10236, "vltd": 10237, "ghtt": 10238, "whrbts": 10239, "frncscn": 10240, "cnclsns": 10241, "crmy": 10242, "rrngng": 10243, "prlt": 10244, "ccstn": 10245, "scrltt": 10246, "rdlph": 10247, "prdcssrs": 10248, "mnngs": 10249, "rtlr": 10250, "chrctrsd": 10251, "mrjn": 10252, "cdts": 10253, "nrrtd": 10254, "mgm": 10255, "c\u00e9sr": 10256, "rvwng": 10257, "drlngtn": 10258, "frks": 10259, "hrrcns": 10260, "clmntd": 10261, "ccptnl": 10262, "chlld": 10263, "snrl": 10264, "sltr": 10265, "pclyps": 10266, "ttrnys": 10267, "svll": 10268, "smnrs": 10269, "bndg": 10270, "jrssc": 10271, "dstrbt": 10272, "mscld": 10273, "pplcbl": 10274, "prsdng": 10275, "rptn": 10276, "crnsh": 10277, "whppng": 10278, "cncrrnt": 10279, "ngrtn": 10280, "xprtd": 10281, "qr": 10282, "grssy": 10283, "sqds": 10284, "psdn": 10285, "m\u00e9xc": 10286, "cprt": 10287, "rnm": 10288, "stnlss": 10289, "nchd": 10290, "xplsns": 10291, "vrn": 10292, "sbscrbrs": 10293, "wstphl": 10294, "dstnctly": 10295, "nchngd": 10296, "cmbntns": 10297, "slppry": 10298, "rfrncd": 10299, "qd": 10300, "vrdct": 10301, "prck": 10302, "pstls": 10303, "gnrnc": 10304, "dllh": 10305, "ntrprnrs": 10306, "cthlcsm": 10307, "dnm": 10308, "ggntc": 10309, "glstnng": 10310, "bln": 10311, "ntnsly": 10312, "prnrml": 10313, "lry": 10314, "mtcrtc": 10315, "tttds": 10316, "pprntcshp": 10317, "mtblsm": 10318, "hlfsctn": 10319, "rtlrs": 10320, "frwns": 10321, "c\u00f4t": 10322, "lnny": 10323, "jmm": 10324, "dnsrs": 10325, "frnzy": 10326, "stbbng": 10327, "dgst": 10328, "cntngnt": 10329, "cnstrnts": 10330, "dslk": 10331, "stnshmnt": 10332, "bcknghmshr": 10333, "shrds": 10334, "glnt": 10335, "hdly": 10336, "lmd": 10337, "rhrsl": 10338, "vnll": 10339, "frfl": 10340, "clstl": 10341, "nrthwrd": 10342, "tnc": 10343, "ctlyst": 10344, "lcnss": 10345, "sdctv": 10346, "s\u00e9r": 10347, "cmprhnd": 10348, "plybck": 10349, "flttrng": 10350, "sclptd": 10351, "nvsnd": 10352, "ndrstnds": 10353, "cmmttng": 10354, "dplmcy": 10355, "tllnn": 10356, "cllry": 10357, "cncptl": 10358, "bptzd": 10359, "srcstclly": 10360, "cnls": 10361, "jlly": 10362, "pthlgy": 10363, "ssms": 10364, "whg": 10365, "frthcmng": 10366, "mtrlgcl": 10367, "rsrchd": 10368, "cnccf": 10369, "blb": 10370, "crch": 10371, "rlsm": 10372, "xsprtd": 10373, "rprsnttns": 10374, "mpcts": 10375, "snrt": 10376, "lphnts": 10377, "fntss": 10378, "cmmnn": 10379, "dsstrs": 10380, "dmnshd": 10381, "mdllng": 10382, "rvs": 10383, "pcck": 10384, "wkdy": 10385, "ynkng": 10386, "prcnct": 10387, "rckfllr": 10388, "hrtn": 10389, "twsts": 10390, "tngl": 10391, "rtrspctv": 10392, "syllbl": 10393, "trnstnl": 10394, "jvln": 10395, "dscrs": 10396, "sclsm": 10397, "thl": 10398, "wlch": 10399, "cybr": 10400, "snsbl": 10401, "sprntd": 10402, "mcmlln": 10403, "prlg": 10404, "hnrtt": 10405, "rpts": 10406, "snsry": 10407, "nwslttr": 10408, "bkng": 10409, "pddl": 10410, "snrd": 10411, "frmdbl": 10412, "ttrcts": 10413, "gggls": 10414, "twtchng": 10415, "lrkng": 10416, "bthlhm": 10417, "xpldng": 10418, "ttckrs": 10419, "brshs": 10420, "shddrng": 10421, "mnz": 10422, "vrtrnd": 10423, "chrly": 10424, "lnns": 10425, "srcstc": 10426, "brckt": 10427, "twls": 10428, "stlrs": 10429, "blngl": 10430, "lgblty": 10431, "ylshs": 10432, "tfldr": 10433, "bvrg": 10434, "blthzr": 10435, "hndkrchf": 10436, "rcps": 10437, "ngrvr": 10438, "slshd": 10439, "bckl": 10440, "grmc": 10441, "mrtls": 10442, "stnshd": 10443, "prspctvs": 10444, "bckgrndn": 10445, "skh": 10446, "trnsgndr": 10447, "sprds": 10448, "scrtny": 10449, "srchs": 10450, "fltly": 10451, "rskd": 10452, "hlplssly": 10453, "slfr": 10454, "clchstr": 10455, "vdvll": 10456, "bny": 10457, "nvdrs": 10458, "swtnss": 10459, "brsl": 10460, "sphrcl": 10461, "pscl": 10462, "bhrty": 10463, "pds": 10464, "bttrnss": 10465, "prtc": 10466, "myths": 10467, "clmntng": 10468, "scnsn": 10469, "cldly": 10470, "rsky": 10471, "clnry": 10472, "vwl": 10473, "mtnt": 10474, "bltrl": 10475, "nsffcnt": 10476, "hstr": 10477, "wllrd": 10478, "chttr": 10479, "tbgrphcl": 10480, "chnd": 10481, "grrll": 10482, "ctrng": 10483, "mplmntng": 10484, "mrnn": 10485, "hstss": 10486, "shfflng": 10487, "hrrdly": 10488, "cnslng": 10489, "nsgn": 10490, "zlgy": 10491, "ccky": 10492, "csystm": 10493, "clcltns": 10494, "rnfrcmnts": 10495, "rcgns": 10496, "bndts": 10497, "nmstkbl": 10498, "spksmn": 10499, "wrkplc": 10500, "nrb": 10501, "mnsr": 10502, "rz": 10503, "vlnch": 10504, "dmly": 10505, "clnr": 10506, "mrrw": 10507, "ncky": 10508, "lrdshp": 10509, "rstcrtc": 10510, "brnk": 10511, "rsrchng": 10512, "nlytcl": 10513, "wldn": 10514, "chlly": 10515, "lxrs": 10516, "wlvrhmptn": 10517, "xcdd": 10518, "crvr": 10519, "sbsdrs": 10520, "cntmprrs": 10521, "grnhs": 10522, "rndmly": 10523, "dstrbnc": 10524, "crx": 10525, "ptmc": 10526, "cvty": 10527, "brlw": 10528, "tmt": 10529, "cvnnt": 10530, "rhnlnd": 10531, "shrtlstd": 10532, "dsgsd": 10533, "cbrt": 10534, "mrktplc": 10535, "nnls": 10536, "blshng": 10537, "lctrns": 10538, "m\u00e9rc": 10539, "rsnnc": 10540, "prmptng": 10541, "blssm": 10542, "wvy": 10543, "dmnstrtvly": 10544, "nnbll": 10545, "dsrbl": 10546, "mstng": 10547, "cntrctrs": 10548, "cstll": 10549, "spchlss": 10550, "drbll": 10551, "smplng": 10552, "mnsk": 10553, "dstrtd": 10554, "tsr": 10555, "bchmstry": 10556, "prprtr": 10557, "rttl": 10558, "pndnt": 10559, "prthd": 10560, "lympd": 10561, "sbdvsns": 10562, "cmpllng": 10563, "fjrd": 10564, "njymnt": 10565, "trtls": 10566, "lnchs": 10567, "mddx": 10568, "trg": 10569, "wrmly": 10570, "prfrs": 10571, "lngtdnl": 10572, "cnddcy": 10573, "prsttt": 10574, "cmbstn": 10575, "lngly": 10576, "ccntd": 10577, "trnslcnt": 10578, "lrsn": 10579, "plgr": 10580, "shrmp": 10581, "cshn": 10582, "stblshmnts": 10583, "ndr\u00e9s": 10584, "grnvll": 10585, "stndrdzd": 10586, "bwmn": 10587, "gryhnd": 10588, "rhythms": 10589, "dgrm": 10590, "hskpr": 10591, "rstrnd": 10592, "drvtvs": 10593, "tlw": 10594, "rspctbl": 10595, "rlms": 10596, "wrkfrc": 10597, "vlnrblty": 10598, "mnpltn": 10599, "mystcl": 10600, "dtbss": 10601, "fdrc": 10602, "rlntlss": 10603, "pstdctrl": 10604, "nthrplgst": 10605, "tts": 10606, "cmmtn": 10607, "hrth": 10608, "lbqrq": 10609, "qvrng": 10610, "hmcd": 10611, "vsblty": 10612, "rjct": 10613, "dngns": 10614, "vndrs": 10615, "dnnll": 10616, "glp": 10617, "cnsltd": 10618, "bnz": 10619, "dptng": 10620, "dggrs": 10621, "slvg": 10622, "msnry": 10623, "dgtlly": 10624, "tknsn": 10625, "blnkly": 10626, "txtbks": 10627, "trmnlgy": 10628, "lctrmgntc": 10629, "smshng": 10630, "tpd": 10631, "lmng": 10632, "prclmtn": 10633, "prdtry": 10634, "nrt": 10635, "nlyz": 10636, "hrmns": 10637, "tlcm": 10638, "tsmnn": 10639, "tblts": 10640, "frddy": 10641, "jclyn": 10642, "nclntn": 10643, "slyr": 10644, "cnmclly": 10645, "sndnc": 10646, "rbr": 10647, "blcksmth": 10648, "k\u00f6ppn": 10649, "ykhm": 10650, "bwldrd": 10651, "spdng": 10652, "prctsd": 10653, "ynnn": 10654, "stlls": 10655, "grssng": 10656, "ngc": 10657, "hymns": 10658, "cffs": 10659, "fndry": 10660, "prfssrshp": 10661, "ccpnts": 10662, "bthd": 10663, "slty": 10664, "rthrfrd": 10665, "cnspcs": 10666, "ntls": 10667, "hrssmnt": 10668, "cngrgtns": 10669, "bcksd": 10670, "mythcl": 10671, "mlky": 10672, "dndn": 10673, "prptl": 10674, "trnsprtng": 10675, "spcd": 10676, "rsrvtns": 10677, "pnnng": 10678, "dsmntld": 10679, "slhtt": 10680, "bsrvrs": 10681, "scld": 10682, "wrthlss": 10683, "nnng": 10684, "chrtsyr": 10685, "kncd": 10686, "gdp": 10687, "pthwys": 10688, "cmtrs": 10689, "gntry": 10690, "bbyln": 10691, "wrnngs": 10692, "sbdd": 10693, "gnrtrs": 10694, "nlghtnmnt": 10695, "shrhldr": 10696, "dmnt": 10697, "mmrtlty": 10698, "llctn": 10699, "dmrng": 10700, "tmprl": 10701, "cnvrtng": 10702, "thrsty": 10703, "bkstr": 10704, "dckr": 10705, "xcd": 10706, "yldd": 10707, "ndwd": 10708, "brb": 10709, "ncrgs": 10710, "frmntl": 10711, "bckdrp": 10712, "brnn": 10713, "pbdy": 10714, "brr": 10715, "qtrl": 10716, "chtd": 10717, "djtnt": 10718, "fsd": 10719, "frgnrs": 10720, "hydr": 10721, "cncntrtns": 10722, "myrl": 10723, "hmmd": 10724, "msh": 10725, "cnglmrt": 10726, "bws": 10727, "snydr": 10728, "nspctd": 10729, "srng": 10730, "wnng": 10731, "dppng": 10732, "frntmn": 10733, "mrtyrs": 10734, "stlk": 10735, "ntchd": 10736, "yrslvs": 10737, "sggd": 10738, "mmnty": 10739, "hdln": 10740, "vlgd": 10741, "mnfst": 10742, "ljbljn": 10743, "hgs": 10744, "hyn": 10745, "pws": 10746, "wggld": 10747, "pnths": 10748, "wmns": 10749, "cntrprts": 10750, "vlns": 10751, "shrtg": 10752, "hwld": 10753, "vrthrw": 10754, "hrshm": 10755, "wrthng": 10756, "mnmth": 10757, "vlvs": 10758, "fdr": 10759, "pmbrk": 10760, "hngd": 10761, "mncng": 10762, "cdd": 10763, "prsstd": 10764, "dlly": 10765, "rcptnst": 10766, "ntrdr": 10767, "nbrbl": 10768, "prtcts": 10769, "tmtn": 10770, "snggld": 10771, "lnnx": 10772, "gngstr": 10773, "pssssv": 10774, "rssr": 10775, "nrgd": 10776, "dstrb": 10777, "lttrd": 10778, "sndls": 10779, "shldn": 10780, "rdwy": 10781, "nrns": 10782, "ndrct": 10783, "nvgrd": 10784, "ndrng": 10785, "prchng": 10786, "nsrd": 10787, "mptnss": 10788, "cml": 10789, "nstll": 10790, "vcry": 10791, "prlyzd": 10792, "chlrd": 10793, "spcltd": 10794, "cngrgtnl": 10795, "byr": 10796, "ltrtns": 10797, "prcl": 10798, "vshn": 10799, "myrtl": 10800, "nrgtc": 10801, "tnnd": 10802, "rspd": 10803, "blzd": 10804, "ncdng": 10805, "tttnhm": 10806, "mnrchs": 10807, "mrz": 10808, "xplrrs": 10809, "bnqt": 10810, "sthrnmst": 10811, "prfx": 10812, "strwy": 10813, "swrm": 10814, "rrgnztn": 10815, "pntlss": 10816, "kthryn": 10817, "sprngr": 10818, "mllnr": 10819, "pntfcl": 10820, "ccrdn": 10821, "wntwrth": 10822, "vrsng": 10823, "hrsbck": 10824, "grgg": 10825, "jdd": 10826, "wltrs": 10827, "hrrngtn": 10828, "chryl": 10829, "ngrd": 10830, "spprssn": 10831, "rchc": 10832, "ssrtd": 10833, "jstfd": 10834, "mstrpc": 10835, "lmns": 10836, "vlgn": 10837, "cqstns": 10838, "smrd": 10839, "mcy": 10840, "bdds": 10841, "vrtcs": 10842, "bngr": 10843, "mmnnt": 10844, "gllm": 10845, "sttnry": 10846, "gngrly": 10847, "rppld": 10848, "sgntrs": 10849, "wrshps": 10850, "xplntns": 10851, "flckng": 10852, "dmgng": 10853, "dsptch": 10854, "grpng": 10855, "prmtm": 10856, "nrthrnmst": 10857, "rgbly": 10858, "tnng": 10859, "dscpls": 10860, "nrmbrg": 10861, "jstfy": 10862, "f\u00e7d": 10863, "vrslls": 10864, "hryn": 10865, "cllngwd": 10866, "sbstttd": 10867, "qts": 10868, "gldmn": 10869, "wsp": 10870, "sprc": 10871, "sprlg": 10872, "d\u00e9prtmnt": 10873, "dpsd": 10874, "cnsrshp": 10875, "chrnt": 10876, "tkgw": 10877, "cntrbts": 10878, "rdskns": 10879, "klmtr": 10880, "lttc": 10881, "rh": 10882, "spphr": 10883, "clcltng": 10884, "mphbs": 10885, "drnchd": 10886, "cyt": 10887, "whrn": 10888, "clnch": 10889, "dbtfl": 10890, "tlngn": 10891, "scrc": 10892, "bnnl": 10893, "snkr": 10894, "mntngrn": 10895, "prssrs": 10896, "cbns": 10897, "dz": 10898, "lmtng": 10899, "brntcy": 10900, "xpcttn": 10901, "pff": 10902, "ndsclsd": 10903, "dpctn": 10904, "hpl": 10905, "nssn": 10906, "mtrpls": 10907, "chrds": 10908, "slg": 10909, "strlns": 10910, "nprcdntd": 10911, "smsng": 10912, "prml": 10913, "skltl": 10914, "vgr": 10915, "gngs": 10916, "cnsttts": 10917, "pnmn": 10918, "sgnld": 10919, "dlny": 10920, "grth": 10921, "spttng": 10922, "lrch": 10923, "scrmblng": 10924, "ldgd": 10925, "dgrdtn": 10926, "wmr": 10927, "ntgr": 10928, "sltnt": 10929, "ntgnst": 10930, "gldd": 10931, "spntns": 10932, "ctchmnt": 10933, "pntrt": 10934, "clmsy": 10935, "qz": 10936, "ndctr": 10937, "lstngprsnnl": 10938, "shrtst": 10939, "bggg": 10940, "nvttnl": 10941, "stmmrd": 10942, "trtrcd": 10943, "dwnd": 10944, "bllds": 10945, "wrnchd": 10946, "glmr": 10947, "tmbls": 10948, "thmpng": 10949, "plgrms": 10950, "scntd": 10951, "cnfsctd": 10952, "pnnslr": 10953, "wpt": 10954, "cdnc": 10955, "shtt": 10956, "tpgrphc": 10957, "trnsfrmng": 10958, "tlzng": 10959, "crbrl": 10960, "gthnbrg": 10961, "chkbns": 10962, "frtlty": 10963, "prtstrs": 10964, "vslly": 10965, "hq": 10966, "gldly": 10967, "cbr": 10968, "srpls": 10969, "grysh": 10970, "clsp": 10971, "plymr": 10972, "trvlr": 10973, "prdclly": 10974, "bsst": 10975, "thrtns": 10976, "rssgnd": 10977, "blckwll": 10978, "tndrly": 10979, "mttn": 10980, "crrgs": 10981, "prtrdng": 10982, "strngthnng": 10983, "dprvd": 10984, "prls": 10985, "rchtr": 10986, "trchs": 10987, "lmr": 10988, "kttl": 10989, "mlvll": 10990, "mltntnl": 10991, "nvts": 10992, "crsrs": 10993, "shrwd": 10994, "httst": 10995, "ntrprtr": 10996, "fncr": 10997, "vdhn": 10998, "qtcs": 10999, "rcllng": 11000, "bbblng": 11001, "stbbl": 11002, "nfldd": 11003, "dspprvl": 11004, "nsprng": 11005, "rmblng": 11006, "bnfcl": 11007, "smplcty": 11008, "fltrd": 11009, "pythn": 11010, "cntnry": 11011, "bckld": 11012, "pzzls": 11013, "bsrptn": 11014, "chrnlgcl": 11015, "brft": 11016, "crtrm": 11017, "mstf": 11018, "nspr": 11019, "nnx": 11020, "tndrnss": 11021, "fllbck": 11022, "wghs": 11023, "bdctd": 11024, "thrptc": 11025, "prsctt": 11026, "mysr": 11027, "spcls": 11028, "nvrst\u00e9": 11029, "nvrr": 11030, "tlnvl": 11031, "tscny": 11032, "cmb": 11033, "hrfrd": 11034, "srrnds": 11035, "whstlng": 11036, "thrbbd": 11037, "ntrprttns": 11038, "gggnhm": 11039, "sylvstr": 11040, "mtrsprts": 11041, "crlss": 11042, "lrk": 11043, "cmmnsm": 11044, "prscrbd": 11045, "cnslttn": 11046, "spplyng": 11047, "gnsht": 11048, "clctc": 11049, "krdstn": 11050, "sprwlng": 11051, "phlps": 11052, "wdwrd": 11053, "ptml": 11054, "brckts": 11055, "rdmptn": 11056, "chtc": 11057, "rcncltn": 11058, "smmryth": 11059, "ftty": 11060, "fshnbl": 11061, "qntt": 11062, "rbtrry": 11063, "dffrng": 11064, "hssng": 11065, "33rd": 11066, "pngns": 11067, "nfrmry": 11068, "drkst": 11069, "prgrmmr": 11070, "crtfcts": 11071, "trmmd": 11072, "shltrs": 11073, "blndly": 11074, "nghtngl": 11075, "fvb": 11076, "chmd": 11077, "lkshm": 11078, "brwnng": 11079, "sprrw": 11080, "thncty": 11081, "cnsrvd": 11082, "wghtd": 11083, "sprstr": 11084, "spyng": 11085, "dbtng": 11086, "vb": 11087, "f\u00e9lx": 11088, "trnpk": 11089, "prchss": 11090, "gnvv": 11091, "rsttl": 11092, "dtlng": 11093, "chpr": 11094, "cmptnt": 11095, "prtctrt": 11096, "sffrs": 11097, "frtns": 11098, "sdc": 11099, "stffly": 11100, "thrsts": 11101, "vccn": 11102, "vbrtng": 11103, "fstnd": 11104, "plmp": 11105, "nwbrn": 11106, "fnly": 11107, "hwtt": 11108, "prtrys": 11109, "stphnsn": 11110, "cntdwn": 11111, "shrry": 11112, "ftzry": 11113, "smnr": 11114, "hnly": 11115, "cttns": 11116, "cpbrd": 11117, "nntcd": 11118, "strdys": 11119, "plnly": 11120, "nvlpd": 11121, "crml": 11122, "qs": 11123, "lndsld": 11124, "bsgd": 11125, "cmrds": 11126, "prfls": 11127, "rttlng": 11128, "nspkn": 11129, "strwn": 11130, "dtrmns": 11131, "trh": 11132, "dmgrphcs2010": 11133, "mxms": 11134, "cllcts": 11135, "ntrcntnntl": 11136, "blcknd": 11137, "ghstly": 11138, "vms": 11139, "ntrcptns": 11140, "slctng": 11141, "wrstld": 11142, "bgrphr": 11143, "crftd": 11144, "rbbts": 11145, "brtltt": 11146, "sbsp": 11147, "mllng": 11148, "schnr": 11149, "frnks": 11150, "dlvrs": 11151, "bsch": 11152, "mrrrd": 11153, "crypt": 11154, "lmntng": 11155, "symphnc": 11156, "grrr": 11157, "rnff": 11158, "mprssns": 11159, "rcgnzbl": 11160, "mrdch": 11161, "bttlshp": 11162, "ltrntvs": 11163, "ctfsh": 11164, "mms": 11165, "xclld": 11166, "dscplnry": 11167, "crrctnl": 11168, "mlgmtn": 11169, "ptssm": 11170, "mntrd": 11171, "bstcl": 11172, "tplgy": 11173, "prncly": 11174, "smcndctr": 11175, "cndns": 11176, "jyh": 11177, "crshs": 11178, "32nd": 11179, "jrsdctns": 11180, "crnch": 11181, "lsnn": 11182, "hrdwd": 11183, "ppcrn": 11184, "ptl": 11185, "jrnys": 11186, "tlz": 11187, "rlblty": 11188, "lsrs": 11189, "byrs": 11190, "shdwd": 11191, "kllngs": 11192, "vllns": 11193, "brnrdn": 11194, "plgs": 11195, "mythlgcl": 11196, "pstnng": 11197, "nqlty": 11198, "bmdcl": 11199, "swmps": 11200, "rstrng": 11201, "drctv": 11202, "frcflly": 11203, "fvrs": 11204, "mntr\u00e9l": 11205, "grnr": 11206, "nmth": 11207, "kzn": 11208, "ctrsss": 11209, "ncrn": 11210, "ntqts": 11211, "cnnns": 11212, "drth": 11213, "mnkr": 11214, "mgrnts": 11215, "tsnm": 11216, "prksh": 11217, "prsnttns": 11218, "lbyn": 11219, "nflctd": 11220, "mprd": 11221, "thrp": 11222, "mdcnl": 11223, "ctgrzd": 11224, "cncldng": 11225, "hmcmng": 11226, "llngtn": 11227, "dsgr": 11228, "bnshd": 11229, "wstbnd": 11230, "vnyrds": 11231, "34th": 11232, "vlkswgn": 11233, "bttms": 11234, "nnjng": 11235, "tsh": 11236, "chrstph": 11237, "dprt": 11238, "dlthd": 11239, "hf": 11240, "cllbrtng": 11241, "vbrtd": 11242, "zv": 11243, "vwls": 11244, "35th": 11245, "mtfs": 11246, "cvn": 11247, "glln": 11248, "splts": 11249, "dvsrs": 11250, "txtls": 11251, "skyln": 11252, "cnms": 11253, "rdhd": 11254, "srbs": 11255, "yshv": 11256, "sprkld": 11257, "hrdnss": 11258, "shrlck": 11259, "rsntmnt": 11260, "chrchyrd": 11261, "clcltn": 11262, "crtq": 11263, "chrnng": 11264, "mrdrng": 11265, "nfltn": 11266, "cnclltn": 11267, "brghtnd": 11268, "drctnl": 11269, "skyscrpr": 11270, "mcknn": 11271, "lndngs": 11272, "hmdty": 11273, "bttld": 11274, "crmblng": 11275, "stpl": 11276, "spls": 11277, "\u00e9tt": 11278, "txnmc": 11279, "rmstrd": 11280, "ntmdtng": 11281, "prccpd": 11282, "hnts": 11283, "typng": 11284, "grwls": 11285, "dpct": 11286, "yddsh": 11287, "plk": 11288, "rhym": 11289, "ms\u00e9": 11290, "mntvd": 11291, "ntrnshp": 11292, "llghny": 11293, "jyn": 11294, "ftng": 11295, "dvrtd": 11296, "frnshd": 11297, "wddngs": 11298, "brnhrd": 11299, "wly": 11300, "ncpbl": 11301, "srdn": 11302, "fshs": 11303, "chckns": 11304, "brwrs": 11305, "ntt": 11306, "gnrnt": 11307, "shdy": 11308, "ntbll": 11309, "dwll": 11310, "chldsh": 11311, "ndrtkng": 11312, "prdcl": 11313, "blgrss": 11314, "shrnk": 11315, "\u00e1ngl": 11316, "clncs": 11317, "brrs": 11318, "ntllctls": 11319, "tysn": 11320, "hrrfc": 11321, "glcrs": 11322, "mltplyr": 11323, "prrts": 11324, "brnss": 11325, "grdl": 11326, "mrjr": 11327, "bff": 11328, "brnstn": 11329, "cylndrs": 11330, "gllrm": 11331, "shvl": 11332, "knxvll": 11333, "ffnc": 11334, "vlntrly": 11335, "lksndr": 11336, "plynml": 11337, "lvld": 11338, "g\u00f6ttngn": 11339, "wlkrs": 11340, "ltch": 11341, "psswrd": 11342, "clcls": 11343, "dvy": 11344, "lytn": 11345, "stlkr": 11346, "prntc": 11347, "vngrd": 11348, "cnsldtn": 11349, "sftnss": 11350, "vrtx": 11351, "fvrts": 11352, "rnngs": 11353, "nvk": 11354, "synpss": 11355, "ffcntly": 11356, "strkts": 11357, "vrlp": 11358, "bths": 11359, "rtfct": 11360, "cclrtn": 11361, "rpprd": 11362, "whmpr": 11363, "nfnts": 11364, "ggrphclly": 11365, "wldv": 11366, "blncng": 11367, "dsgrmnt": 11368, "wdwd": 11369, "psthms": 11370, "cdllc": 11371, "gdwn": 11372, "clnztn": 11373, "chnks": 11374, "hrryng": 11375, "thrvng": 11376, "slcks": 11377, "sllrs": 11378, "cnfdrcy": 11379, "nhrnt": 11380, "jrs": 11381, "msnc": 11382, "rspcts": 11383, "srmn": 11384, "mcrthr": 11385, "wtlnd": 11386, "grsss": 11387, "lshd": 11388, "wrc\u0142w": 11389, "hdlns": 11390, "brgds": 11391, "\u00eel": 11392, "ndll": 11393, "vss": 11394, "glvr": 11395, "mdcns": 11396, "nrchst": 11397, "kncks": 11398, "rprtry": 11399, "nspct": 11400, "nlyzd": 11401, "cnclds": 11402, "knttd": 11403, "slcng": 11404, "gllsp": 11405, "mdlr": 11406, "scrbbd": 11407, "frrs": 11408, "rtfd": 11409, "cnfdntl": 11410, "bp": 11411, "chrsty": 11412, "rfrbshd": 11413, "krs": 11414, "ptnm": 11415, "scrcy": 11416, "plttng": 11417, "nmncltr": 11418, "mssf": 11419, "crcltd": 11420, "cmbrdgshr": 11421, "dstrctng": 11422, "shffl": 11423, "brtslv": 11424, "czy": 11425, "splndd": 11426, "gbn": 11427, "trpds": 11428, "rflx": 11429, "nvgtr": 11430, "chrgrphy": 11431, "wrckg": 11432, "wthstnd": 11433, "gntd": 11434, "frgvn": 11435, "mdrnst": 11436, "grsy": 11437, "rddl": 11438, "dtctr": 11439, "tntcls": 11440, "mlnchly": 11441, "strns": 11442, "bffy": 11443, "rndzvs": 11444, "nchrg": 11445, "cmmngs": 11446, "tntd": 11447, "clrss": 11448, "sprfmly": 11449, "nprdctbl": 11450, "scrchd": 11451, "smpld": 11452, "snhwr": 11453, "phlsphrs": 11454, "cldy": 11455, "llh": 11456, "cngrsss": 11457, "mccb": 11458, "mtsbsh": 11459, "hstlty": 11460, "dgh": 11461, "rtch": 11462, "jys": 11463, "cnvct": 11464, "shtty": 11465, "prvnts": 11466, "nglfd": 11467, "stfld": 11468, "sngwrtrs": 11469, "dlnr": 11470, "stnk": 11471, "mdlln": 11472, "pldgd": 11473, "frdmn": 11474, "jcks": 11475, "bwld": 11476, "pjms": 11477, "dlscnt": 11478, "mhgny": 11479, "mprrs": 11480, "scndnv": 11481, "kml": 11482, "ntrtnr": 11483, "grzd": 11484, "ntrtnd": 11485, "crdntng": 11486, "fmbl": 11487, "cmpltns": 11488, "lvv": 11489, "fshd": 11490, "nhbt": 11491, "mgnm": 11492, "ntwrthy": 11493, "cclds": 11494, "brcng": 11495, "rclls": 11496, "vrgs": 11497, "rchlgsts": 11498, "bmng": 11499, "ncrrct": 11500, "pdf": 11501, "hwthrn": 11502, "swtshrt": 11503, "hzy": 11504, "ntrprt": 11505, "snff": 11506, "dnky": 11507, "mthfl": 11508, "cntmpltd": 11509, "smnl": 11510, "fmsly": 11511, "dyssy": 11512, "xmnr": 11513, "grhrd": 11514, "trmtc": 11515, "mrlty": 11516, "rwlnd": 11517, "strghtnng": 11518, "sqrmd": 11519, "bffr": 11520, "hygn": 11521, "sprsdd": 11522, "brghs": 11523, "szr": 11524, "nlshd": 11525, "smrtr": 11526, "ssssng": 11527, "cdms": 11528, "tlbn": 11529, "rcyclng": 11530, "nntt": 11531, "pplrzd": 11532, "trckl": 11533, "jrvs": 11534, "grff": 11535, "cllpsng": 11536, "smltns": 11537, "fstd": 11538, "ssmbls": 11539, "grphs": 11540, "wryly": 11541, "blh": 11542, "scrfcd": 11543, "trvllrs": 11544, "nvgt": 11545, "btchnlgy": 11546, "kbr": 11547, "ngln": 11548, "frmntnd": 11549, "prdctvty": 11550, "jltd": 11551, "bjctns": 11552, "grdnng": 11553, "rvv": 11554, "fthrwght": 11555, "lyrd": 11556, "tfts": 11557, "hzrds": 11558, "cmflg": 11559, "bndnng": 11560, "vckrs": 11561, "cldd": 11562, "tlr": 11563, "trmnls": 11564, "dscnnctd": 11565, "glcs": 11566, "cvrt": 11567, "mbssdrs": 11568, "rrgnc": 11569, "chrflly": 11570, "nnhbtd": 11571, "xmns": 11572, "frbrg": 11573, "hlns": 11574, "rssrd": 11575, "tsdr": 11576, "blgng": 11577, "dvrsn": 11578, "pwn": 11579, "rstrctrng": 11580, "kntn": 11581, "sncrty": 11582, "ntgrt": 11583, "sbgrp": 11584, "trvrs": 11585, "hystrcl": 11586, "srgy": 11587, "srwk": 11588, "nmplyd": 11589, "dffy": 11590, "skylr": 11591, "fltrs": 11592, "mndtd": 11593, "spkd": 11594, "lvrg": 11595, "dcttrshp": 11596, "pndrd": 11597, "smlcst": 11598, "hrrw": 11599, "scrtchs": 11600, "syrp": 11601, "flffy": 11602, "spctcl": 11603, "drmmng": 11604, "crsdrs": 11605, "nvc": 11606, "thmpd": 11607, "grphcl": 11608, "crrt": 11609, "nvstng": 11610, "lll": 11611, "nsltd": 11612, "snffng": 11613, "pyld": 11614, "yts": 11615, "trcky": 11616, "ftnts": 11617, "brghm": 11618, "smgglng": 11619, "nhlt": 11620, "lnsng": 11621, "brdcstrs": 11622, "ccts": 11623, "wnc": 11624, "khzstn": 11625, "gpt": 11626, "tkns": 11627, "sttr": 11628, "glxs": 11629, "cgrs": 11630, "dff": 11631, "tpst": 11632, "mrcnrs": 11633, "frntd": 11634, "ddgd": 11635, "srtng": 11636, "rdclff": 11637, "strnt": 11638, "mj": 11639, "zz": 11640, "qrtz": 11641, "rrvw": 11642, "sqntng": 11643, "mclrn": 11644, "chntng": 11645, "yths": 11646, "pntrtd": 11647, "rvwrs": 11648, "mxm": 11649, "drknng": 11650, "fnctnd": 11651, "dsmss": 11652, "mnfctrs": 11653, "dmtry": 11654, "prcssrs": 11655, "frlss": 11656, "rgnzrs": 11657, "42nd": 11658, "cclrtr": 11659, "rgl": 11660, "psns": 11661, "lyss": 11662, "mnpltd": 11663, "shlnd": 11664, "cshns": 11665, "krm": 11666, "cyprss": 11667, "49rs": 11668, "brnchng": 11669, "rmnnt": 11670, "fflts": 11671, "cnfrmng": 11672, "cntxts": 11673, "wdstck": 11674, "wnry": 11675, "gldys": 11676, "kld": 11677, "kngsly": 11678, "trnsprncy": 11679, "trvllr": 11680, "ffst": 11681, "gltndr": 11682, "tlrd": 11683, "plnnr": 11684, "scrptd": 11685, "hmmrd": 11686, "prtry": 11687, "dcksn": 11688, "trq": 11689, "mlttd": 11690, "glmrgn": 11691, "rlctnc": 11692, "crrctn": 11693, "rppl": 11694, "rgstrs": 11695, "dsgnth": 11696, "cyclsts": 11697, "llmntn": 11698, "ppnt": 11699, "dblng": 11700, "bllstc": 11701, "pssssng": 11702, "dnrs": 11703, "wghtlftng": 11704, "lnmn": 11705, "phylls": 11706, "yrkr": 11707, "crrspnd": 11708, "sqkd": 11709, "vygs": 11710, "prfrncs": 11711, "lstnr": 11712, "ltrntly": 11713, "gcm": 11714, "nfrmlly": 11715, "shltn": 11716, "mprvsd": 11717, "pvtl": 11718, "brtrnd": 11719, "dscnds": 11720, "frdrk": 11721, "bnrml": 11722, "grcrs": 11723, "nchntd": 11724, "cmmmrtv": 11725, "btsy": 11726, "gnzlz": 11727, "pntrtng": 11728, "chrms": 11729, "prttyps": 11730, "blvn": 11731, "cnnlly": 11732, "1": 11733, "drwld": 11734, "prpndclr": 11735, "trphs": 11736, "cmmssnng": 11737, "crdntls": 11738, "kdnp": 11739, "hghtnd": 11740, "msclly": 11741, "nvrsd": 11742, "clppng": 11743, "rtz": 11744, "cslty": 11745, "cnnng": 11746, "npr": 11747, "ntrcty": 11748, "rgrts": 11749, "nrc": 11750, "\u00e9tnn": 11751, "qy": 11752, "gldbrg": 11753, "rgntly": 11754, "slmnly": 11755, "dnmntns": 11756, "lklhd": 11757, "frctr": 11758, "mschvs": 11759, "chstrfld": 11760, "mptnc": 11761, "lbd": 11762, "cmpgnng": 11763, "nvrnss": 11764, "sttchs": 11765, "scrwng": 11766, "skmmd": 11767, "lstc": 11768, "skns": 11769, "nmtr": 11770, "dvds": 11771, "cntmpltng": 11772, "vcky": 11773, "strghtfrwrd": 11774, "ntnds": 11775, "bcps": 11776, "sblng": 11777, "mlvn": 11778, "chspk": 11779, "mbnkmnt": 11780, "prrmtt": 11781, "rm\u00f3n": 11782, "slms": 11783, "drstp": 11784, "crydn": 11785, "d\u00e9bt": 11786, "txn": 11787, "chcklng": 11788, "tmprnc": 11789, "nfrn": 11790, "ptcs": 11791, "tjkstn": 11792, "bhdr": 11793, "shvrs": 11794, "36th": 11795, "thsslnk": 11796, "mrlbrgh": 11797, "bklt": 11798, "kyrgyzstn": 11799, "bckstg": 11800, "shlln": 11801, "xplts": 11802, "krstn": 11803, "ssg": 11804, "crnn": 11805, "ntrprnrshp": 11806, "sp\u00f1": 11807, "nstrctrs": 11808, "wndrlnd": 11809, "trny": 11810, "grdnt": 11811, "hndrx": 11812, "tgs": 11813, "bsrbng": 11814, "whrl": 11815, "mngld": 11816, "ppsl": 11817, "htn": 11818, "lblld": 11819, "yvnn": 11820, "ssmptns": 11821, "clthd": 11822, "csms": 11823, "cmmmrtd": 11824, "sprkl": 11825, "bhvrs": 11826, "dcrsng": 11827, "gdljr": 11828, "prjdc": 11829, "ptmztn": 11830, "dvln": 11831, "nckldn": 11832, "wstwd": 11833, "kbl": 11834, "whd": 11835, "tchn": 11836, "shdd": 11837, "ltrgcl": 11838, "thgs": 11839, "drkly": 11840, "vp": 11841, "rmng": 11842, "mrgs": 11843, "rsy": 11844, "twd": 11845, "nwrdly": 11846, "shrpnd": 11847, "mbtns": 11848, "plppd": 11849, "rptls": 11850, "dmnstrtng": 11851, "nppls": 11852, "rdnt": 11853, "lckhd": 11854, "nsmbls": 11855, "crstn": 11856, "plng": 11857, "rlyng": 11858, "gmz": 11859, "bgrphs": 11860, "brysn": 11861, "mrcnry": 11862, "snfrd": 11863, "synnyms": 11864, "bbbd": 11865, "snkn": 11866, "crpthn": 11867, "drmnt": 11868, "rstlng": 11869, "dslkd": 11870, "hywrd": 11871, "mphsz": 11872, "ctgnl": 11873, "cmmnctng": 11874, "ftprnts": 11875, "dstllry": 11876, "wtrflls": 11877, "shldd": 11878, "frgrnc": 11879, "shrll": 11880, "nthlgs": 11881, "brrg": 11882, "mndmnts": 11883, "hlfbttm": 11884, "nfrc": 11885, "smthn": 11886, "shpng": 11887, "brttl": 11888, "swllws": 11889, "plsntly": 11890, "sbnt": 11891, "sckr": 11892, "vtmn": 11893, "rsstng": 11894, "cmmtmnts": 11895, "frdrc": 11896, "chrgrs": 11897, "phylgntc": 11898, "rbtc": 11899, "xprsss": 11900, "nflrscnc": 11901, "nthssts": 11902, "sdmnts": 11903, "strll": 11904, "vdct": 11905, "grfld": 11906, "nwt": 11907, "sbstrts": 11908, "clrr": 11909, "thstl": 11910, "dckns": 11911, "prfc": 11912, "stmshp": 11913, "frtfctn": 11914, "rdctv": 11915, "ntfd": 11916, "hlk": 11917, "vntrl": 11918, "rgmntl": 11919, "hkkd": 11920, "ghnt": 11921, "mlstn": 11922, "rttd": 11923, "jsts": 11924, "slfrd": 11925, "rstrctn": 11926, "ndrctly": 11927, "brststrk": 11928, "cspr": 11929, "zhjng": 11930, "nfrcd": 11931, "mnsty": 11932, "mtrk": 11933, "lvry": 11934, "hmsxlty": 11935, "kngr": 11936, "ythfl": 11937, "frstr": 11938, "ngnd": 11939, "strtp": 11940, "bcktt": 11941, "ndntfd": 11942, "sncrly": 11943, "mtphr": 11944, "shtlnd": 11945, "bdmnl": 11946, "stlth": 11947, "xmpt": 11948, "llglly": 11949, "sprvsng": 11950, "whnd": 11951, "rcst": 11952, "yrvn": 11953, "prpsly": 11954, "fncs": 11955, "sclgst": 11956, "hrtly": 11957, "rylst": 11958, "chrng": 11959, "wkdys": 11960, "vrtclly": 11961, "prrt": 11962, "sxts": 11963, "cllqlly": 11964, "trlly": 11965, "trmntn": 11966, "cmbr": 11967, "rdsgnd": 11968, "vltl": 11969, "mtny": 11970, "clrksn": 11971, "gntclly": 11972, "krg": 11973, "drknb": 11974, "rrtnl": 11975, "mttd": 11976, "tchncns": 11977, "hmsxl": 11978, "tmprd": 11979, "srm": 11980, "lcknw": 11981, "wsps": 11982, "scwlng": 11983, "llth": 11984, "sphrs": 11985, "scrfcs": 11986, "shmn": 11987, "hndwrtng": 11988, "rphns": 11989, "bthrst": 11990, "mhrj": 11991, "nrng": 11992, "sxs": 11993, "hmmrng": 11994, "bnprt": 11995, "mynrd": 11996, "shrf": 11997, "mjstc": 11998, "njctd": 11999, "dntst": 12000, "bscrd": 12001, "tscrd": 12002, "sscptbl": 12003, "strppng": 12004, "strghtn": 12005, "trttd": 12006, "crmchl": 12007, "hrmt": 12008, "grcflly": 12009, "clbhs": 12010, "vgrsly": 12011, "nflx": 12012, "vrlppng": 12013, "dfcncy": 12014, "hllnc": 12015, "gllwy": 12016, "sbgns": 12017, "rfnry": 12018, "frns": 12019, "nlyzng": 12020, "tkwnd": 12021, "mrqtt": 12022, "svts": 12023, "hrcrt": 12024, "nctrnl": 12025, "nvlty": 12026, "hdwtrs": 12027, "sccssrs": 12028, "stggrng": 12029, "hvc": 12030, "grlfrnds": 12031, "skppng": 12032, "sqk": 12033, "xplt": 12034, "flrscnt": 12035, "lbrtrn": 12036, "pcflly": 12037, "bckstrk": 12038, "bsv": 12039, "vngrs": 12040, "wrrngtn": 12041, "rckn": 12042, "rndr": 12043, "brrws": 12044, "khld": 12045, "lttds": 12046, "cmmdty": 12047, "mndn": 12048, "kprs": 12049, "sghtd": 12050, "frwng": 12051, "bndgs": 12052, "glls": 12053, "kts": 12054, "clstrd": 12055, "spng": 12056, "tstfd": 12057, "ndvrtntly": 12058, "physlgcl": 12059, "cnjctr": 12060, "dstngshng": 12061, "rmrz": 12062, "wncng": 12063, "nctvtd": 12064, "slncd": 12065, "tnkr": 12066, "ttm": 12067, "fbn": 12068, "strykr": 12069, "gnc": 12070, "cnncl": 12071, "pprhnsn": 12072, "bwng": 12073, "thnnr": 12074, "nrrwr": 12075, "fflnt": 12076, "cmds": 12077, "pncks": 12078, "frnshngs": 12079, "blkns": 12080, "rbtcs": 12081, "pffd": 12082, "sktrs": 12083, "cthbrt": 12084, "fngrd": 12085, "ntrntnls": 12086, "drln": 12087, "hstlts": 12088, "tlns": 12089, "hrrrs": 12090, "xrcsd": 12091, "chvlr": 12092, "pbrngng": 12093, "nclsv": 12094, "lftwff": 12095, "pntdly": 12096, "dmssns": 12097, "rndtn": 12098, "lwrs": 12099, "lntc": 12100, "sthtcs": 12101, "schdls": 12102, "jwllry": 12103, "crns": 12104, "bzr": 12105, "hghtn": 12106, "tql": 12107, "rmmbrnc": 12108, "swndn": 12109, "dstrbtng": 12110, "trnsylvn": 12111, "frntl": 12112, "prdcls": 12113, "ndxd": 12114, "crtx": 12115, "strdng": 12116, "sympsm": 12117, "tctc": 12118, "rdd": 12119, "rlct": 12120, "crwly": 12121, "rftp": 12122, "kmp": 12123, "shggy": 12124, "sccssvly": 12125, "srcrr": 12126, "hmmm": 12127, "sgt": 12128, "ntrrptn": 12129, "nclsscl": 12130, "rhtrc": 12131, "bllns": 12132, "nrgs": 12133, "sntn": 12134, "dwnldd": 12135, "swmll": 12136, "smplst": 12137, "ngttng": 12138, "clrfd": 12139, "xml": 12140, "vndr": 12141, "crtch": 12142, "yst": 12143, "prtstng": 12144, "shrggng": 12145, "dlctly": 12146, "ncks": 12147, "pstwr": 12148, "dltd": 12149, "skppr": 12150, "httn": 12151, "mschf": 12152, "ntrn": 12153, "strmy": 12154, "prtnng": 12155, "rrgnstn": 12156, "pdrs": 12157, "crrsh": 12158, "dsgrd": 12159, "clngs": 12160, "vrgrwn": 12161, "mtwn": 12162, "crcdl": 12163, "nsrt": 12164, "hrrbly": 12165, "qvr": 12166, "bft": 12167, "wtrng": 12168, "frcns": 12169, "ntrjctd": 12170, "mdllst": 12171, "nrscnc": 12172, "dgnl": 12173, "xsprtn": 12174, "ttmns": 12175, "bylr": 12176, "pplcnts": 12177, "gnslngr": 12178, "ntrgng": 12179, "fgtv": 12180, "spryd": 12181, "dngl": 12182, "xcdng": 12183, "ktz": 12184, "chryslr": 12185, "vldty": 12186, "jrks": 12187, "lmbrdy": 12188, "hppng": 12189, "shwrs": 12190, "mxs": 12191, "snkrs": 12192, "dscrtn": 12193, "prld": 12194, "strtcr": 12195, "cptrs": 12196, "vnsh": 12197, "drcl": 12198, "ptchfrk": 12199, "qnln": 12200, "lphbtcl": 12201, "scndng": 12202, "wrns": 12203, "wtry": 12204, "scln": 12205, "npblshd": 12206, "cptlsm": 12207, "mhwk": 12208, "trckld": 12209, "gllntry": 12210, "nvntns": 12211, "trmptr": 12212, "dsdn": 12213, "ssyrn": 12214, "prllls": 12215, "sbtg": 12216, "vlkyr": 12217, "nglct": 12218, "wtchcrft": 12219, "lrtd": 12220, "wtfrd": 12221, "mlm\u00f6": 12222, "gbby": 12223, "mjrd": 12224, "fss": 12225, "hmbrgr": 12226, "dvyn": 12227, "ngy": 12228, "rnclly": 12229, "cnnctr": 12230, "tckld": 12231, "mckd": 12232, "rnsttd": 12233, "trmr": 12234, "38th": 12235, "lbrts": 12236, "sqt": 12237, "hrssh": 12238, "crlsn": 12239, "rtwrks": 12240, "ttnds": 12241, "jltt": 12242, "hvs": 12243, "hllwys": 12244, "cmmntng": 12245, "ktlyn": 12246, "bckbn": 12247, "jmsn": 12248, "swrl": 12249, "clclt": 12250, "nnxtn": 12251, "sthbnd": 12252, "glctc": 12253, "htchcck": 12254, "tmpst": 12255, "zppd": 12256, "frscs": 12257, "rrngs": 12258, "pntry": 12259, "nhm": 12260, "whtmn": 12261, "blzzrd": 12262, "ntrfcs": 12263, "knrd": 12264, "ndg": 12265, "gbbns": 12266, "cnvnd": 12267, "hstgs": 12268, "mcc": 12269, "rrk": 12270, "byss": 12271, "stylng": 12272, "sttts": 12273, "lfs": 12274, "glttrd": 12275, "hltyp": 12276, "grffths": 12277, "scnts": 12278, "brtlly": 12279, "ngrm": 12280, "lgrs": 12281, "sckt": 12282, "btq": 12283, "fllwr": 12284, "vrfy": 12285, "frnndz": 12286, "prknsn": 12287, "kyv": 12288, "mlfrd": 12289, "thrsd": 12290, "dwy": 12291, "slts": 12292, "tgng": 12293, "mlr": 12294, "mnh": 12295, "frctrd": 12296, "mlnd": 12297, "rgnsng": 12298, "dpstn": 12299, "bcycls": 12300, "clssmt": 12301, "rfrn": 12302, "prvw": 12303, "bqt": 12304, "ncmbnts": 12305, "ntrcptd": 12306, "snrlng": 12307, "rrtc": 12308, "trnsprts": 12309, "vrfd": 12310, "cnnctvty": 12311, "bmpr": 12312, "xtng": 12313, "prphry": 12314, "scrmbl": 12315, "shttr": 12316, "rsltns": 12317, "shldng": 12318, "pssgwy": 12319, "ngrdnt": 12320, "dwnng": 12321, "tsm": 12322, "kwlsk": 12323, "tpgrphy": 12324, "dmpng": 12325, "crnrd": 12326, "prscrptn": 12327, "dwgr": 12328, "strnly": 12329, "hlstr": 12330, "nsstnc": 12331, "rfrmr": 12332, "gmntd": 12333, "nnwyl": 12334, "cntrctng": 12335, "brwstr": 12336, "cmplsn": 12337, "mnq": 12338, "mshrms": 12339, "mpssbly": 12340, "spghtt": 12341, "sdmnt": 12342, "slcs": 12343, "trss": 12344, "byctt": 12345, "sfhn": 12346, "rmgh": 12347, "lbrtd": 12348, "qvrd": 12349, "sprtk": 12350, "cpcts": 12351, "cqttd": 12352, "sbsdd": 12353, "kldr": 12354, "nrrws": 12355, "rdrm": 12356, "mrcntl": 12357, "rrnd": 12358, "chppd": 12359, "wndmll": 12360, "rmdy": 12361, "bh": 12362, "dryl": 12363, "sttls": 12364, "cnsstncy": 12365, "sprsly": 12366, "vbrtns": 12367, "39th": 12368, "swrng": 12369, "clcks": 12370, "stllnss": 12371, "phrh": 12372, "frmltd": 12373, "strvd": 12374, "brngy": 12375, "rgnzs": 12376, "bfrndd": 12377, "pprntcd": 12378, "psly": 12379, "cnvrs": 12380, "fstvts": 12381, "dclrs": 12382, "flhm": 12383, "rqstng": 12384, "gnrlzd": 12385, "clhn": 12386, "srcd": 12387, "mddlsbrgh": 12388, "vrlnd": 12389, "wxfrd": 12390, "flxblty": 12391, "cmprmsd": 12392, "slsvt": 12393, "nvlbl": 12394, "prdctbl": 12395, "ystr": 12396, "grny": 12397, "tryn": 12398, "nghtly": 12399, "dhb": 12400, "l\u00e9n": 12401, "cmdc": 12402, "gsbrg": 12403, "bffld": 12404, "dlmm": 12405, "nsghts": 12406, "cmmnttrs": 12407, "flrt": 12408, "cnsrvtr": 12409, "cllrbn": 12410, "wtrd": 12411, "xdtn": 12412, "ncmpssd": 12413, "rcwy": 12414, "scrrs": 12415, "scrtrs": 12416, "mrchs": 12417, "ncrrctly": 12418, "shldrd": 12419, "zlgst": 12420, "cnflctng": 12421, "ssyst": 12422, "mnfld": 12423, "wwf": 12424, "crzd": 12425, "nthsstclly": 12426, "dbs": 12427, "djstmnt": 12428, "mgdln": 12429, "nggmnts": 12430, "xpctntly": 12431, "nptn": 12432, "frnts": 12433, "cllbrtrs": 12434, "clckws": 12435, "bmbd": 12436, "bsns": 12437, "thrdd": 12438, "csmr": 12439, "vnshng": 12440, "dyk": 12441, "mcqr": 12442, "mmrtls": 12443, "lkrs": 12444, "gddy": 12445, "sntmntl": 12446, "gth": 12447, "ntrcpt": 12448, "rxy": 12449, "crdlng": 12450, "chchstr": 12451, "stpdty": 12452, "clypts": 12453, "bcknd": 12454, "brcly": 12455, "qlt": 12456, "frmtth": 12457, "rmvs": 12458, "ttrbt": 12459, "nstblty": 12460, "stckngs": 12461, "knttng": 12462, "lfsh": 12463, "xclsn": 12464, "rthmtc": 12465, "cllbrt": 12466, "js\u00fas": 12467, "shmmrd": 12468, "mdc": 12469, "xds": 12470, "csystms": 12471, "nslvd": 12472, "sthd": 12473, "bscs": 12474, "smbr": 12475, "rdstrbtn": 12476, "flmmkng": 12477, "crcklng": 12478, "cndrll": 12479, "xprmntd": 12480, "shndng": 12481, "stffng": 12482, "wtrwy": 12483, "clshs": 12484, "mcgrgr": 12485, "fckn": 12486, "spcy": 12487, "symmtrc": 12488, "rskng": 12489, "37th": 12490, "rchtctrth": 12491, "bldd": 12492, "lndwnrs": 12493, "nvrtd": 12494, "dfcts": 12495, "ndpndnts": 12496, "pplncs": 12497, "ndfntly": 12498, "chrstnsn": 12499, "mcntsh": 12500, "spcttr": 12501, "grms": 12502, "dnbr": 12503, "dfct": 12504, "plgrm": 12505, "gbln": 12506, "mrmd": 12507, "trppng": 12508, "dnldsn": 12509, "schdlng": 12510, "knstntn": 12511, "lmbrd": 12512, "clrmnt": 12513, "drmtry": 12514, "brskly": 12515, "gthrngs": 12516, "crks": 12517, "pmphlt": 12518, "cnfns": 12519, "flywght": 12520, "crvtt": 12521, "60th": 12522, "xcsd": 12523, "sdmntry": 12524, "rtltn": 12525, "hyns": 12526, "crchng": 12527, "prbtn": 12528, "nrthbnd": 12529, "wlcx": 12530, "jggng": 12531, "jxn": 12532, "dpng": 12533, "cmprsns": 12534, "grvttnl": 12535, "xhbtng": 12536, "cvndsh": 12537, "prntl": 12538, "nqly": 12539, "bz": 12540, "sprtns": 12541, "drsm": 12542, "nncntly": 12543, "zrgz": 12544, "pstry": 12545, "spnc": 12546, "scrpn": 12547, "trkmnstn": 12548, "rmmd": 12549, "blnds": 12550, "cplng": 12551, "whrtn": 12552, "srbnn": 12553, "bfrt": 12554, "wrshppd": 12555, "lpp": 12556, "rblls": 12557, "myspc": 12558, "gldsmth": 12559, "mpctd": 12560, "stmfrd": 12561, "kmbrly": 12562, "rchwy": 12563, "cnmtc": 12564, "mstknly": 12565, "prnthss": 12566, "chlls": 12567, "rstrm": 12568, "ntrrs": 12569, "hnrng": 12570, "mnnglss": 12571, "cnsltncy": 12572, "whrlng": 12573, "bllrd": 12574, "cptvs": 12575, "jdk": 12576, "nsltng": 12577, "clmsn": 12578, "rflctv": 12579, "msqt": 12580, "prscll": 12581, "blstng": 12582, "plgtc": 12583, "crckld": 12584, "lkn": 12585, "dstrssd": 12586, "swny": 12587, "scssrs": 12588, "rdrly": 12589, "smns": 12590, "gsh": 12591, "gdlp": 12592, "cnsdrtns": 12593, "nvtbly": 12594, "flnks": 12595, "trjn": 12596, "dynmt": 12597, "skddd": 12598, "mmtt": 12599, "flfllng": 12600, "ldrdl": 12601, "gldstn": 12602, "nwtwn": 12603, "brsk": 12604, "smldrng": 12605, "wrnkls": 12606, "crthg": 12607, "fkk": 12608, "slghtrd": 12609, "prvkd": 12610, "jld": 12611, "khybr": 12612, "gvt": 12613, "vrcrz": 12614, "prpnnt": 12615, "nrwd": 12616, "syntx": 12617, "vsclr": 12618, "vhs": 12619, "tndncs": 12620, "rjcts": 12621, "lhgh": 12622, "pnzr": 12623, "vncnz": 12624, "mprcl": 12625, "mtchndrl": 12626, "flwlss": 12627, "bptsm": 12628, "bmpng": 12629, "hghlghtng": 12630, "nwmrkt": 12631, "ssndn": 12632, "htchd": 12633, "qls": 12634, "flklnd": 12635, "mky": 12636, "mccrmck": 12637, "bnclrs": 12638, "hndcffs": 12639, "nnfctn": 12640, "cnfdntly": 12641, "sprrd": 12642, "glnds": 12643, "rctng": 12644, "bdygrds": 12645, "3": 12646, "ngrvng": 12647, "crvngs": 12648, "wbbr": 12649, "prvlgd": 12650, "prstc": 12651, "tppld": 12652, "chrrd": 12653, "frnchss": 12654, "ptmstc": 12655, "mtlly": 12656, "myfr": 12657, "lvsh": 12658, "rndbt": 12659, "trblnt": 12660, "trnrs": 12661, "dfncs": 12662, "frstrtng": 12663, "twgs": 12664, "rrsts": 12665, "rbtrtn": 12666, "lzrds": 12667, "dngld": 12668, "trlls": 12669, "nmdc": 12670, "rmchr": 12671, "sbcnscs": 12672, "qntttv": 12673, "scrlls": 12674, "grndmstr": 12675, "dsslv": 12676, "sthlnd": 12677, "gbld": 12678, "crtl": 12679, "ntrvn": 12680, "hrrng": 12681, "jqn": 12682, "gndn": 12683, "vrst": 12684, "nslts": 12685, "hckng": 12686, "flbrght": 12687, "phld": 12688, "nfncy": 12689, "lzly": 12690, "hlvs": 12691, "clwng": 12692, "swg": 12693, "fdrlly": 12694, "snckrd": 12695, "rvlvng": 12696, "vlvng": 12697, "ywn": 12698, "nsstnt": 12699, "qch": 12700, "pmpkn": 12701, "rddr": 12702, "jg": 12703, "csblnc": 12704, "rt\u00e9": 12705, "dpnt": 12706, "drplts": 12707, "mthws": 12708, "scknng": 12709, "rwrds": 12710, "dcmntng": 12711, "llstrt": 12712, "dvctng": 12713, "dw": 12714, "cncd": 12715, "plngng": 12716, "sthwrd": 12717, "\u00e9dtns": 12718, "nmss": 12719, "sphnx": 12720, "nld": 12721, "wrkt": 12722, "rdnss": 12723, "sngprn": 12724, "njybl": 12725, "bndld": 12726, "fmnsm": 12727, "rcvrs": 12728, "blrry": 12729, "rlnc": 12730, "ptsy": 12731, "gck": 12732, "prdx": 12733, "hrmfl": 12734, "srvcd": 12735, "sbcmmtt": 12736, "lbyrnth": 12737, "fmlrty": 12738, "mcgrth": 12739, "scldd": 12740, "dlghtfl": 12741, "rscng": 12742, "bscts": 12743, "mllsks": 12744, "pwrlss": 12745, "mprts": 12746, "wlff": 12747, "plln": 12748, "mtz": 12749, "jngs": 12750, "tbrst": 12751, "bmbngs": 12752, "bllngs": 12753, "tndng": 12754, "svrty": 12755, "ttch": 12756, "glchd": 12757, "crftsmn": 12758, "bpln": 12759, "cnvrgnc": 12760, "bdd": 12761, "lynx": 12762, "cnsltn": 12763, "crrltn": 12764, "rzv": 12765, "rbrtm": 12766, "sntrd": 12767, "rctry": 12768, "cnvrts": 12769, "dptv": 12770, "brwck": 12771, "mrylbn": 12772, "mbrcng": 12773, "dshbrd": 12774, "frcbly": 12775, "brnmth": 12776, "syks": 12777, "dscl": 12778, "bstsllr": 12779, "mtnng": 12780, "jlln": 12781, "dffsn": 12782, "drbn": 12783, "bjp": 12784, "prngrphy": 12785, "dvt": 12786, "knn": 12787, "bshkrtstn": 12788, "whtly": 12789, "msrn": 12790, "spplrs": 12791, "gnrts": 12792, "kyrn": 12793, "ndffrnt": 12794, "brnly": 12795, "mtrnty": 12796, "glvd": 12797, "ntrdctns": 12798, "prfrrng": 12799, "ffts": 12800, "dscrptndstrbtn": 12801, "nhrt": 12802, "rsnbrg": 12803, "tsdrs": 12804, "glttr": 12805, "flshy": 12806, "trkc": 12807, "vrstl": 12808, "flstrd": 12809, "rplcs": 12810, "fnlssngls": 12811, "twnkl": 12812, "bccnrs": 12813, "fnky": 12814, "sdctn": 12815, "cndr": 12816, "khmr": 12817, "hllry": 12818, "trnsltng": 12819, "pprx": 12820, "blms": 12821, "srd": 12822, "mldvs": 12823, "cchrn": 12824, "rmry": 12825, "mccn": 12826, "llmntng": 12827, "djs": 12828, "lcrtv": 12829, "frqntd": 12830, "blky": 12831, "ngttn": 12832, "mmml": 12833, "jml": 12834, "ntrctng": 12835, "tpstry": 12836, "nsly": 12837, "lcnd": 12838, "wlkns": 12839, "plnk": 12840, "sspns": 12841, "trthflly": 12842, "lympn": 12843, "mcg": 12844, "tlws": 12845, "prsttts": 12846, "splshng": 12847, "frr": 12848, "nstrmntlst": 12849, "glly": 12850, "shrddd": 12851, "brdbnd": 12852, "crstd": 12853, "ncrdls": 12854, "41st": 12855, "zlgcl": 12856, "bdfrdshr": 12857, "slpr": 12858, "rhtt": 12859, "mcld": 12860, "shprd": 12861, "\u00e9ml": 12862, "strddlng": 12863, "ffrtlssly": 12864, "mstch": 12865, "lcfr": 12866, "hckr": 12867, "prplxd": 12868, "pnrm": 12869, "ntrmttnt": 12870, "vrgnty": 12871, "dspsd": 12872, "tntng": 12873, "jhr": 12874, "pdstl": 12875, "wrhss": 12876, "nnts": 12877, "2": 12878, "prtg": 12879, "mplmnts": 12880, "prrd": 12881, "mgrtry": 12882, "hrnndz": 12883, "ssktn": 12884, "fnnl": 12885, "dwnfll": 12886, "sphrn": 12887, "trnsmt": 12888, "stmd": 12889, "crrctns": 12890, "ccmpnmnt": 12891, "xhl": 12892, "tgn": 12893, "rssrnc": 12894, "tngbl": 12895, "glmpsd": 12896, "xpltd": 12897, "grssd": 12898, "dhrm": 12899, "nlgbl": 12900, "phllgy": 12901, "lzrs": 12902, "trmphnt": 12903, "snttn": 12904, "frrnnr": 12905, "skltns": 12906, "cswy": 12907, "thrztn": 12908, "pndltn": 12909, "mcmhn": 12910, "rpstry": 12911, "prvtztn": 12912, "rntcl": 12913, "srmns": 12914, "strytllng": 12915, "nzzld": 12916, "rchvl": 12917, "drpr": 12918, "nvj": 12919, "bntmwght": 12920, "bnfc": 12921, "mgrnt": 12922, "dynsts": 12923, "cltrlly": 12924, "mmntry": 12925, "brthlssly": 12926, "cnvncs": 12927, "ssnth": 12928, "frbnks": 12929, "wknsss": 12930, "vvnn": 12931, "cntndr": 12932, "splyd": 12933, "whrmcht": 12934, "wflly": 12935, "hsks": 12936, "sprfcl": 12937, "rttr": 12938, "tstfy": 12939, "spcltv": 12940, "qcknd": 12941, "znst": 12942, "ddct": 12943, "frfrnt": 12944, "vlcns": 12945, "rsnd": 12946, "ftrnns": 12947, "rsrvrs": 12948, "rqm": 12949, "rrsstbl": 12950, "trchrs": 12951, "lsc": 12952, "wmb": 12953, "blckml": 12954, "rprdcd": 12955, "wllsly": 12956, "xprmntng": 12957, "bbss": 12958, "mzngly": 12959, "brnts": 12960, "sprrs": 12961, "gnsy": 12962, "ctvt": 12963, "synthszrs": 12964, "hrr": 12965, "cntrctn": 12966, "prstss": 12967, "schltz": 12968, "thrsh": 12969, "cmplxn": 12970, "frmltn": 12971, "drdd": 12972, "prpgtn": 12973, "grmsby": 12974, "cryptc": 12975, "cmmncmnt": 12976, "mthw": 12977, "ffncs": 12978, "slws": 12979, "strylns": 12980, "shrvprt": 12981, "prrn": 12982, "dscrptv": 12983, "gddrd": 12984, "flc": 12985, "wvrd": 12986, "vck": 12987, "nrvsnss": 12988, "lfbt": 12989, "tttrd": 12990, "rgltr": 12991, "lbbyng": 12992, "ndp": 12993, "rtcltd": 12994, "shmp": 12995, "vgtrn": 12996, "sttch": 12997, "rnw": 12998, "pctrsq": 12999, "cstly": 13000, "scrptr": 13001, "ymh": 13002, "snctns": 13003, "clph": 13004, "bgt\u00e1": 13005, "cknwldgng": 13006, "dffrd": 13007, "crssbw": 13008, "trrts": 13009, "fthm": 13010, "dstd": 13011, "pckgd": 13012, "snggd": 13013, "msndrstndng": 13014, "mnmz": 13015, "sbbth": 13016, "trndhm": 13017, "mnln": 13018, "rmstc": 13019, "mmnsly": 13020, "wthrd": 13021, "prmltry": 13022, "mdfld": 13023, "dtrch": 13024, "nryn": 13025, "lgmnt": 13026, "cmplr": 13027, "sbst\u00e1n": 13028, "ntrvnd": 13029, "trnscrpt": 13030, "mdtd": 13031, "zppln": 13032, "prgrssvly": 13033, "mltnts": 13034, "stmn": 13035, "tbld": 13036, "dcc": 13037, "lmnd": 13038, "prtgnsts": 13039, "spl": 13040, "sndtrcks": 13041, "cnscsly": 13042, "rrttng": 13043, "shnzhn": 13044, "cllhn": 13045, "dlgcl": 13046, "nctr": 13047, "ndngs": 13048, "mmmth": 13049, "sprtsmn": 13050, "wrmn": 13051, "prvlng": 13052, "sgrgtn": 13053, "dfndnts": 13054, "crfr": 13055, "wtrwys": 13056, "slpprs": 13057, "brghtst": 13058, "cyclns": 13059, "wllghby": 13060, "ntrcptn": 13061, "prvtr": 13062, "tblr": 13063, "spplmntd": 13064, "drtmnd": 13065, "jvnts": 13066, "sckly": 13067, "sfd": 13068, "szy": 13069, "wrpd": 13070, "blddr": 13071, "dmntv": 13072, "jcy": 13073, "brntfrd": 13074, "nlgs": 13075, "dzzlng": 13076, "grvly": 13077, "nwcmrs": 13078, "kntc": 13079, "dcttr": 13080, "cmprtvly": 13081, "nbtn": 13082, "rpy": 13083, "flyr": 13084, "hrtcltrl": 13085, "nsstng": 13086, "sffsd": 13087, "hlrs": 13088, "slppy": 13089, "cffcnt": 13090, "nstdy": 13091, "nlysts": 13092, "flrsh": 13093, "gdwll": 13094, "sdns": 13095, "brthtkng": 13096, "shpmnt": 13097, "hrrsbrg": 13098, "bdgr": 13099, "crtrn": 13100, "drrll": 13101, "plpt": 13102, "yrnng": 13103, "slkn": 13104, "shwtm": 13105, "rpplng": 13106, "pdtrc": 13107, "rddng": 13108, "fclttd": 13109, "jnctns": 13110, "dffrntt": 13111, "fntns": 13112, "jstcs": 13113, "lzn": 13114, "ltchd": 13115, "vnglst": 13116, "vntltn": 13117, "hdlg": 13118, "cnvyd": 13119, "thrns": 13120, "cgs": 13121, "prdmnnt": 13122, "wnb": 13123, "qstnbl": 13124, "clptr": 13125, "mplctd": 13126, "lgns": 13127, "ntrsn": 13128, "ndrwd": 13129, "mcrscp": 13130, "nmnn": 13131, "prnk": 13132, "drryl": 13133, "sdbry": 13134, "rdndnt": 13135, "sbcntnnt": 13136, "wghtlftr": 13137, "crssngs": 13138, "pprxmtn": 13139, "ysf": 13140, "nhncng": 13141, "ncrdlsly": 13142, "shthd": 13143, "wdgd": 13144, "jggr": 13145, "ffndrs": 13146, "dffrnttn": 13147, "brnsly": 13148, "lysss": 13149, "brls": 13150, "hsty": 13151, "pcl": 13152, "mthyl": 13153, "xprssv": 13154, "lbrtdrs": 13155, "tnmbrd": 13156, "knl": 13157, "mcknly": 13158, "cndtnd": 13159, "rdsd": 13160, "rsgnng": 13161, "nrmd": 13162, "ftbllrs": 13163, "drcts": 13164, "chsts": 13165, "dmntng": 13166, "mtrcltd": 13167, "sccds": 13168, "pffy": 13169, "pckrd": 13170, "snrng": 13171, "strghtr": 13172, "drmr": 13173, "rckr": 13174, "gnpwdr": 13175, "shwcsd": 13176, "wynn": 13177, "ncryptn": 13178, "rgnrtn": 13179, "bllmy": 13180, "svrng": 13181, "srlzd": 13182, "nglshmn": 13183, "mclghln": 13184, "ncr": 13185, "ncrcld": 13186, "stnts": 13187, "grz": 13188, "snkd": 13189, "rfd": 13190, "bttst": 13191, "mnnhm": 13192, "nhbts": 13193, "strngths": 13194, "vnms": 13195, "wllngnss": 13196, "mrmrng": 13197, "ssmbl": 13198, "drtc": 13199, "ndvr": 13200, "spttrd": 13201, "trths": 13202, "stnr": 13203, "rv\u00e8r": 13204, "dstrght": 13205, "dyr": 13206, "tlzs": 13207, "dmnstr": 13208, "dwnrght": 13209, "ncntrllbly": 13210, "grnsy": 13211, "bnnt": 13212, "nttng": 13213, "cndtnl": 13214, "grsslnds": 13215, "gfy": 13216, "pgrds": 13217, "hrzns": 13218, "strctrth": 13219, "ddgng": 13220, "chrnlgy": 13221, "hlltp": 13222, "zm": 13223, "chppr": 13224, "mrphlgcl": 13225, "kmbr": 13226, "grndbrkng": 13227, "trnstnd": 13228, "wndll": 13229, "cnsltnts": 13230, "jhrkhnd": 13231, "frmnt": 13232, "bltz": 13233, "gttysbrg": 13234, "cmfrtd": 13235, "chftn": 13236, "brbc": 13237, "ppcy": 13238, "ssrtmnt": 13239, "grshwn": 13240, "thrttl": 13241, "schlhs": 13242, "nmnt": 13243, "plmnry": 13244, "rphnd": 13245, "crnrstn": 13246, "ntrlzd": 13247, "wdrw": 13248, "bnglw": 13249, "hdbrd": 13250, "vnv": 13251, "bllyng": 13252, "rhb": 13253, "cndctrs": 13254, "bvrgs": 13255, "dmnstrts": 13256, "sqzs": 13257, "rfrshng": 13258, "rgstrr": 13259, "ntnlsts": 13260, "rmtc": 13261, "srnms": 13262, "dmmd": 13263, "pntgn": 13264, "rclmd": 13265, "rchdl": 13266, "vllrs": 13267, "lyln": 13268, "plybl": 13269, "stblshs": 13270, "cnfssns": 13271, "stlks": 13272, "tyr": 13273, "ppprs": 13274, "mtrlzd": 13275, "glmmr": 13276, "kb": 13277, "fctts": 13278, "hmlys": 13279, "nlytcs": 13280, "blmngtn": 13281, "crystlln": 13282, "pdlsk": 13283, "wtnssng": 13284, "rttnl": 13285, "nflmmtry": 13286, "vrhl": 13287, "bdctn": 13288, "nfbx": 13289, "tyrl": 13290, "synth": 13291, "tthd": 13292, "rgyl": 13293, "llsns": 13294, "cdrn": 13295, "prn\u00e1": 13296, "nykyrn": 13297, "rrlvnt": 13298, "wrnch": 13299, "ttnc": 13300, "prgyn": 13301, "sffrgn": 13302, "cntrstd": 13303, "synchrnzd": 13304, "sprvsrs": 13305, "nnpls": 13306,
[...]
